{"<s>":0,"<pad>":1,"</s>":2,"<unk>":3,"<mask>":4,"!":5,"\"":6,"#":7,"$":8,"%":9,"&":10,"'":11,"(":12,")":13,"*":14,"+":15,",":16,"-":17,".":18,"/":19,"0":20,"1":21,"2":22,"3":23,"4":24,"5":25,"6":26,"7":27,"8":28,"9":29,":":30,";":31,"<":32,"=":33,">":34,"?":35,"@":36,"A":37,"B":38,"C":39,"D":40,"E":41,"F":42,"G":43,"H":44,"I":45,"J":46,"K":47,"L":48,"M":49,"N":50,"O":51,"P":52,"Q":53,"R":54,"S":55,"T":56,"U":57,"V":58,"W":59,"X":60,"Y":61,"Z":62,"[":63,"\\":64,"]":65,"^":66,"_":67,"`":68,"a":69,"b":70,"c":71,"d":72,"e":73,"f":74,"g":75,"h":76,"i":77,"j":78,"k":79,"l":80,"m":81,"n":82,"o":83,"p":84,"q":85,"r":86,"s":87,"t":88,"u":89,"v":90,"w":91,"x":92,"y":93,"z":94,"{":95,"|":96,"}":97,"~":98,"¡":99,"¢":100,"£":101,"¤":102,"¥":103,"¦":104,"§":105,"¨":106,"©":107,"ª":108,"«":109,"¬":110,"®":111,"¯":112,"°":113,"±":114,"²":115,"³":116,"´":117,"µ":118,"¶":119,"·":120,"¸":121,"¹":122,"º":123,"»":124,"¼":125,"½":126,"¾":127,"¿":128,"À":129,"Á":130,"Â":131,"Ã":132,"Ä":133,"Å":134,"Æ":135,"Ç":136,"È":137,"É":138,"Ê":139,"Ë":140,"Ì":141,"Í":142,"Î":143,"Ï":144,"Ð":145,"Ñ":146,"Ò":147,"Ó":148,"Ô":149,"Õ":150,"Ö":151,"×":152,"Ø":153,"Ù":154,"Ú":155,"Û":156,"Ü":157,"Ý":158,"Þ":159,"ß":160,"à":161,"á":162,"â":163,"ã":164,"ä":165,"å":166,"æ":167,"ç":168,"è":169,"é":170,"ê":171,"ë":172,"ì":173,"í":174,"î":175,"ï":176,"ð":177,"ñ":178,"ò":179,"ó":180,"ô":181,"õ":182,"ö":183,"÷":184,"ø":185,"ù":186,"ú":187,"û":188,"ü":189,"ý":190,"þ":191,"ÿ":192,"Ā":193,"ā":194,"Ă":195,"ă":196,"Ą":197,"ą":198,"Ć":199,"ć":200,"Ĉ":201,"ĉ":202,"Ċ":203,"ċ":204,"Č":205,"č":206,"Ď":207,"ď":208,"Đ":209,"đ":210,"Ē":211,"ē":212,"Ĕ":213,"ĕ":214,"Ė":215,"ė":216,"Ę":217,"ę":218,"Ě":219,"ě":220,"Ĝ":221,"ĝ":222,"Ğ":223,"ğ":224,"Ġ":225,"ġ":226,"Ģ":227,"ģ":228,"Ĥ":229,"ĥ":230,"Ħ":231,"ħ":232,"Ĩ":233,"ĩ":234,"Ī":235,"ī":236,"Ĭ":237,"ĭ":238,"Į":239,"į":240,"İ":241,"ı":242,"Ĳ":243,"ĳ":244,"Ĵ":245,"ĵ":246,"Ķ":247,"ķ":248,"ĸ":249,"Ĺ":250,"ĺ":251,"Ļ":252,"ļ":253,"Ľ":254,"ľ":255,"Ŀ":256,"ŀ":257,"Ł":258,"ł":259,"Ń":260,"Ġa":261,"er":262,"th":263,"in":264,"on":265,"an":266,"Ġ,":267,"Ġs":268,"or":269,"Ġb":270,"ti":271,"Ġ1":272,"ar":273,"Ġc":274,"Ġ-":275,"en":276,"Ġth":277,"Ġf":278,"al":279,"Ġp":280,"le":281,"Ġm":282,"Ġw":283,"te":284,"Ġthe":285,"is":286,"rb":287,"Ġo":288,"Ġh":289,"re":290,"Ġ2":291,"Ġ19":292,"Ġ.":293,"Ġd":294,"Ġn":295,"as":296,"Ġin":297,"am":298,"Ġan":299,"es":300,"Ġof":301,"la":302,"ic":303,"ed":304,"ro":305,"ir":306,"Ġt":307,"Ġ20":308,"ing":309,"Ġand":310,"Ġj":311,"tion":312,"un":313,"rrb":314,"lrb":315,"Ġg":316,"ce":317,"el":318,"ate":319,"us":320,"it":321,"ch":322,"Ġ'":323,"ol":324,"il":325,"ur":326,"irth":327,"ent":328,"at":329,"Ġl":330,"Ġbirth":331,"ber":332,"ig":333,"Ġde":334,"Ġk":335,"Ġre":336,"ation":337,"ame":338,"Ġar":339,"he":340,"Ġ200":341,"st":342,"tic":343,"Ġr":344,"Ġwas":345,"Ġfor":346,"ad":347,"ag":348,"Ġto":349,"si":350,"date":351,"om":352,"im":353,"Ġ''":354,"Ġis":355,"ear":356,"ter":357,"and":358,"tle":359,"Ġst":360,"Ġy":361,"Ġ--":362,"ul":363,"Ġ201":364,"Ġal":365,"pla":366,"mber":367,"title":368,"Ġe":369,"Ġch":370,"ve":371,"Ġhe":372,"ac":373,"place":374,"Ġas":375,"ticle":376,"ver":377,"ian":378,"Ġarticle":379,"Ġ`":380,"ot":381,"Ġun":382,"orn":383,"all":384,"Ġname":385,"id":386,"ap":387,"Ġon":388,"Ġ``":389,"igh":390,"ia":391,"Ġv":392,"ay":393,"et":394,"ut":395,"ub":396,"ted":397,"ational":398,"ow":399,"Ġ199":400,"Ġpla":401,"Ġat":402,"Ġse":403,"ity":404,"Ġle":405,"ct":406,"ary":407,"ath":408,"mer":409,"Ġwh":410,"ist":411,"up":412,"ri":413,"ard":414,"ight":415,"ug":416,"ra":417,"Ġplay":418,"Ġ198":419,"ly":420,"Ġ18":421,"um":422,"Ġro":423,"Ġborn":424,"Ġuni":425,"os":426,"art":427,"Ġnational":428,"ith":429,"Ġfo":430,"Ġ3":431,"Ġhis":432,"Ġco":433,"Ġpro":434,"Ġ0":435,"age":436,"ears":437,"res":438,"ge":439,"Ġte":440,"Ġim":441,"ust":442,"oc":443,"Ġbe":444,"Ġne":445,"ue":446,"Ġ197":447,"der":448,"Ġmar":449,"man":450,"ie":451,"sh":452,"Ġwith":453,"ou":454,"Ġdeath":455,"ican":456,"ud":457,"ball":458,"uary":459,"ess":460,"cc":461,"lub":462,"Ġsp":463,"Ġla":464,"ers":465,"ain":466,"ord":467,"Ġimage":468,"ion":469,"rom":470,"ak":471,"Ġcom":472,"Ġcon":473,"ey":474,"est":475,"ich":476,"ork":477,"ill":478,"Ġfrom":479,"ish":480,"Ġ196":481,"if":482,"Ġnew":483,"Ġjo":484,"ov":485,"ack":486,"Ġsh":487,"ick":488,"end":489,"op":490,"ran":491,"Ġcol":492,"Ġ195":493,"Ġap":494,"ous":495,"av":496,"Ġamer":497,"Ġcap":498,"Ġyears":499,"od":500,"als":501,"eb":502,"Ġfoot":503,"Ġme":504,"name":505,"land":506,"Ġby":507,"ry":508,"ab":509,"vers":510,"ts":511,"ip":512,"Ġjan":513,"Ġfootball":514,"Ġamerican":515,"ach":516,"Ġ6":517,"Ġser":518,"Ġ4":519,"Ġwho":520,"Ġbo":521,"ire":522,"Ġmay":523,"uc":524,"iv":525,"Ġ5":526,"so":527,"ton":528,"Ġgo":529,"ik":530,"osi":531,"und":532,"ell":533,"pg":534,"Ġ194":535,"ong":536,"Ġsc":537,"Ġmo":538,"Ġunivers":539,"Ġor":540,"iel":541,"ft":542,"Ġcar":543,"ec":544,"Ġhas":545,"osition":546,"ward":547,"tive":548,"em":549,"ze":550,"Ġpre":551,"Ġno":552,"Ġen":553,"outh":554,"Ġuniversity":555,"Ġstate":556,"ff":557,"les":558,"Ġclub":559,"ok":560,"Ġplayed":561,"Ġrec":562,"sion":563,"Ġheight":564,"own":565,"ine":566,"Ġ;":567,"ore":568,"Ġ193":569,"Ġjul":570,"og":571,"ice":572,"Ġjanuary":573,"Ġocc":574,"Ġpol":575,"son":576,"Ġjun":577,"00":578,"Ġaug":579,"upation":580,"ast":581,"urr":582,"ort":583,"Ġalso":584,"Ġaugust":585,"ant":586,"jpg":587,"Ġoccupation":588,"Ġher":589,"Ġjuly":590,"ren":591,"ctor":592,"ague":593,"Ġmarch":594,"ass":595,"hn":596,"Ã©":597,"Ġ7":598,"ugh":599,"urrent":600,"Ġprof":601,"Ġu":602,"ang":603,"Ġunited":604,"Ġind":605,"Ġkn":606,"Ġeng":607,"Ġcurrent":608,"Ġfir":609,"Ġpart":610,"Ġman":611,"ames":612,"team":613,"sid":614,"io":615,"Ġti":616,"Ġcoun":617,"Ġ192":618,"cember":619,"Ġfirst":620,"ther":621,"per":622,"Ġdecember":623,"cto":624,"ment":625,"iz":626,"ond":627,"Ġbr":628,"Ġocto":629,"Ġoctober":630,"ull":631,"Ġpar":632,"Ġsch":633,"Ġteam":634,"ence":635,"Ġjune":636,"ere":637,"Ġnove":638,"ies":639,"Ġ8":640,"Ġag":641,"Ġmus":642,"Ġter":643,"Ġ2011":644,"Ġnovember":645,"Ġph":646,"Ġleague":647,"ld":648,"se":649,"Ġcan":650,"Ġpr":651,"Ġed":652,"Ġsing":653,"ated":654,"Ġcolle":655,"ession":656,"Ġsep":657,"cl":658,"Ġ10":659,"urn":660,"Ġ2012":661,"tember":662,"Ġseptember":663,"Ġcomp":664,"Ġ12":665,"Ġfeb":666,"red":667,"for":668,"Ġ17":669,"ma":670,"Ġfebr":671,"Ġ15":672,"Ġmin":673,"ign":674,"Ġfebruary":675,"mp":676,"qu":677,"Ġ2008":678,"resent":679,"Ġrecord":680,"Ġrep":681,"Ġ9":682,"Ġmember":683,"me":684,"ouse":685,"Ġserv":686,"Ġ2014":687,"ah":688,"Ġsu":689,"Ġgen":690,"Ġ&":691,"Ġi":692,"Ġfil":693,"ash":694,"essor":695,"position":696,"Ġ2009":697,"Ġz":698,"Ġwor":699,"Ġass":700,"Ġjohn":701,"she":702,"Ġaust":703,"Ġshe":704,"Ġyork":705,"Ġ2013":706,"19":707,"bo":708,"Ġcaption":709,"Ġknown":710,"Ġterm":711,"Ġad":712,"Ġfin":713,"Ġwork":714,"amp":715,"Ġprofession":716,"but":717,"ril":718,"Ġfran":719,"ason":720,"Ġdra":721,"ck":722,"Ġthat":723,"eer":724,"ral":725,"Ġ16":726,"the":727,"Ġmusic":728,"Ġfilm":729,"to":730,"Ġbat":731,"Ġwe":732,"Ġapril":733,"ial":734,"Ġformer":735,"ade":736,"tern":737,"Ġapp":738,"club":739,"ric":740,"years":741,"Ġex":742,"enn":743,"Ġ2010":744,"Ġper":745,"ubl":746,"ield":747,"ph":748,"Ġ2007":749,"Ġaf":750,"Ġcollege":751,"ild":752,"Ġdebut":753,"Ġparty":754,"Ġworld":755,"Ġbro":756,"tu":757,"Ġac":758,"ree":759,"Ġone":760,"rit":761,"Ġit":762,"ress":763,"Ġstates":764,"Ġpoli":765,"iam":766,"wn":767,"Ġ:":768,"Ġsouth":769,"Ġtw":770,"old":771,"Ġ2006":772,"Ġbas":773,"Ġfull":774,"Ġpolitic":775,"ann":776,"Ġ11":777,"ory":778,"Ġcareer":779,"year":780,"Ġaward":781,"Ġplayer":782,"Ġcount":783,"ool":784,"ins":785,"Ġcal":786,"ke":787,"Ġus":788,"Ġ13":789,"uring":790,"Ġseason":791,"ina":792,"Ġ189":793,"ier":794,"Ġ191":795,"Ġnor":796,"Ġbar":797,"Ġge":798,"az":799,"aj":800,"Ġwar":801,"Ġgu":802,"atch":803,"Ġcomm":804,"ince":805,"Ġger":806,"Ġgoals":807,"px":808,"Ġclubs":809,"Ġ14":810,"ss":811,"Ġoff":812,"Ġprofessional":813,"Ã¡":814,"Ġste":815,"Ġaustral":816,"ai":817,"Ġback":818,"enc":819,"Ġmed":820,"ock":821,"birth":822,"co":823,"umber":824,"we":825,"Ġfc":826,"mar":827,"Ġev":828,"bur":829,"ied":830,"Ġcity":831,"Ġdraft":832,"tish":833,"Ġ24":834,"ater":835,"Ġ2004":836,"Ġpo":837,"ive":838,"Ġmid":839,"Ġ22":840,"Ġ2015":841,"sp":842,"Ġcanad":843,"Ġband":844,"lec":845,"lab":846,"fl":847,"his":848,"Ġ25":849,"start":850,"Ġchar":851,"Ġ28":852,"Ġfullname":853,"ati":854,"lo":855,"af":856,"go":857,"Ġwill":858,"bert":859,"Ġstat":860,"clud":861,"ris":862,"rum":863,"ys":864,"Ġgr":865,"Ġwhich":866,"Ġact":867,"Ġinclud":868,"ung":869,"vis":870,"Ġbri":871,"Ġ2005":872,"Ġall":873,"Ġengland":874,"Ġ27":875,"Ġlo":876,"Ġrun":877,"Ġright":878,"active":879,"Ġsec":880,"Ġnationality":881,"riter":882,"ner":883,"Ġpresent":884,"ister":885,"Ġcaps":886,"ham":887,"led":888,"round":889,"oci":890,"Ġab":891,"Ġdef":892,"Ġcr":893,"Ġfootballer":894,"ne":895,"Ġir":896,"Ġhar":897,"air":898,"Ġel":899,"ank":900,"Ġdav":901,"Ġ2001":902,"Ġschool":903,"Ġwon":904,"Ġhad":905,"Ġbeen":906,"Ġ21":907,"ome":908,"Ġyouth":909,"Ġsucc":910,"aw":911,"ure":912,"Ġso":913,"Ġ23":914,"Ġgerman":915,"by":916,"Ġgeor":917,"Ġ190":918,"ship":919,"Ġchild":920,"ting":921,"Ġ29":922,"Ġlaw":923,"ainst":924,"cap":925,"uth":926,"Ġear":927,"Ġactor":928,"anc":929,"Ġtr":930,"ide":931,"Ġpolitician":932,"Ġbritish":933,"Ġsan":934,"Ġpe":935,"Ġposition":936,"Ġcoach":937,"sti":938,"Ġbl":939,"Ġbut":940,"ley":941,"Ġ30":942,"Ġprod":943,"br":944,"tt":945,"tist":946,"Ġcl":947,"Ġking":948,"Ġweight":949,"Ġtwo":950,"aul":951,"my":952,"Ġduring":953,"Ġmost":954,"ford":955,"Ġmon":956,"Ġ2003":957,"Ġrus":958,"Ġchamp":959,"ally":960,"Ġbec":961,"Ġchampion":962,"inn":963,"Ġpresid":964,"ki":965,"inc":966,"ens":967,"Ġyear":968,"update":969,"Ġspouse":970,"Ġserved":971,"Ġbra":972,"Ġbest":973,"Ġgre":974,"ww":975,"one":976,"Ġcent":977,"Ġ26":978,"olog":979,"Ġ2002":980,"Ġplays":981,"Ġsinger":982,"ll":983,"Ġmich":984,"size":985,"lish":986,"Ġmade":987,"Ġdist":988,"tions":989,"ael":990,"pe":991,"ons":992,"ings":993,"ix":994,"que":995,"val":996,"Ġcro":997,"Ġhigh":998,"ics":999,"Ġcurrently":1000,"Ġover":1001,"Ġdes":1002,"Ġnot":1003,"200":1004,"ose":1005,"Ġgenre":1006,"Ġchildren":1007,"Ġproduc":1008,"ka":1009,"vel":1010,"Ġmis":1011,"Ġdire":1012,"Ġintern":1013,"Ġappear":1014,"burg":1015,"ker":1016,"Ġam":1017,"Ġsm":1018,"Ġha":1019,"Ġjames":1020,"Ġstar":1021,"eral":1022,"ors":1023,"Ġcont":1024,"gan":1025,"ious":1026,"ale":1027,"Ġdo":1028,"Ġtime":1029,"Ġwilliam":1030,"stitu":1031,"ls":1032,"igin":1033,"Ġ2000":1034,"shire":1035,"Ġassoci":1036,"Ġpresident":1037,"ile":1038,"Ġqu":1039,"ern":1040,"Ġyo":1041,"vern":1042,"icket":1043,"ven":1044,"ased":1045,"Ġlast":1046,"Ġ1995":1047,"Ġ1999":1048,"iforn":1049,"Ġafter":1050,"Ġcaliforn":1051,"Ġactress":1052,"uthor":1053,"alist":1054,"Ġda":1055,"ington":1056,"Ġgro":1057,"Ġ1982":1058,"Ġii":1059,"clubs":1060,"hl":1061,"ib":1062,"Ġhim":1063,"ical":1064,"Ġelec":1065,"Ġ1992":1066,"Ġagainst":1067,"Ġcalifornia":1068,"com":1069,"amil":1070,"Ġalb":1071,"Ġalma":1072,"ather":1073,"Ġwhere":1074,"Ġ31":1075,"Ġminister":1076,"Ġaustralian":1077,"Ġdavid":1078,"caps":1079,"mater":1080,"ino":1081,"Ġbus":1082,"Ġreg":1083,"Ġru":1084,"Ġ1990":1085,"Ġ1991":1086,"Ġatt":1087,"20":1088,"ground":1089,"lig":1090,"ron":1091,"Ġale":1092,"ans":1093,"til":1094,"Ġnd":1095,"Ġjack":1096,"Ġrele":1097,"Ġcolum":1098,"goals":1099,"ative":1100,"Ġann":1101,"omas":1102,"Ġ1996":1103,"Ġlead":1104,"Ġorigin":1105,"ielder":1106,"dec":1107,"Ġauthor":1108,"ind":1109,"Ġsw":1110,"Ġsen":1111,"ender":1112,"Ġfl":1113,"Ġmatch":1114,"Ġwal":1115,"Ġgames":1116,"Ġleft":1117,"national":1118,"ood":1119,"Ġdis":1120,"Ġartist":1121,"Ġvic":1122,"Ġfour":1123,"rict":1124,"Ġbackground":1125,"ockey":1126,"Ġcanadian":1127,"label":1128,"ger":1129,"Ġ/":1130,"Ġplaying":1131,"Ġtele":1132,"Ġsci":1133,"vision":1134,"ha":1135,"iti":1136,"tor":1137,"ance":1138,"Ġpop":1139,"Ġpubl":1140,"Ġmil":1141,"Ġtheir":1142,"Ġho":1143,"Ġres":1144,"strum":1145,"Ġ1994":1146,"strument":1147,"field":1148,"ane":1149,"Ġreti":1150,"Ġ1980":1151,"Ġcurrentclub":1152,"Ġfinal":1153,"Ġgeorge":1154,"Ġmaj":1155,"oll":1156,"Ġ1981":1157,"Ġinternational":1158,"ces":1159,"de":1160,"Ġsy":1161,"Ġthro":1162,"Ġoly":1163,"ese":1164,"Ġlou":1165,"Ġ1984":1166,"Ġdirector":1167,"Ġtelevision":1168,"Ġolymp":1169,"ev":1170,"fielder":1171,"ite":1172,"ket":1173,"med":1174,"ram":1175,"Ġunder":1176,"Ġloan":1177,"Ġrussi":1178,"Ġbecame":1179,"ica":1180,"Ġrelig":1181,"ult":1182,"Ġ1970":1183,"Ġ1976":1184,"Ġlater":1185,"able":1186,"Ġgovern":1187,"Ġpredec":1188,"Ġndash":1189,"Ġpredecessor":1190,"her":1191,"Ġwell":1192,"inger":1193,"Ġ186":1194,"Ġnationalteam":1195,"Ġrepubl":1196,"ace":1197,"off":1198,"Ġmc":1199,"Ġhockey":1200,"Ġ1988":1201,"Ġenglish":1202,"Ġcounty":1203,"Ġsecond":1204,"ior":1205,"ves":1206,"Ġother":1207,"Ġje":1208,"olo":1209,"Ġdem":1210,"ander":1211,"Ġleg":1212,"Ġ187":1213,"Ġrock":1214,"Ġnationalyears":1215,"Ġdistrict":1216,"au":1217,"Ã³":1218,"Ã¼":1219,"ana":1220,"Ġthree":1221,"aly":1222,"Ġhist":1223,"Ġ1998":1224,"erson":1225,"Ġcompe":1226,"Ġâ":1227,"Ġtitle":1228,"Ġup":1229,"Ġsince":1230,"Ġpit":1231,"Ġout":1232,"lad":1233,"Ġ1985":1234,"Ġlouis":1235,"yl":1236,"Ġbu":1237,"Ġthomas":1238,"ald":1239,"Ġpat":1240,"Ġstud":1241,"ular":1242,"Ġ188":1243,"Ġnationalgoals":1244,"Ġevent":1245,"Ġalex":1246,"Ġmajor":1247,"je":1248,"min":1249,"port":1250,"uk":1251,"writer":1252,"ĨĴ":1253,"Ġcas":1254,"ene":1255,"Ġpri":1256,"Ġhel":1257,"Ġwhen":1258,"Ġscot":1259,"Ġincluding":1260,"Ġreleased":1261,"ĠâĨĴ":1262,"iver":1263,"number":1264,"pen":1265,"ania":1266,"Ġbow":1267,"Ġfe":1268,"Ġfre":1269,"Ġfield":1270,"Ġmet":1271,"Ġwest":1272,"Ġnumber":1273,"ife":1274,"Ġseries":1275,"lb":1276,"na":1277,"Ġ?":1278,"iness":1279,"Ġ1997":1280,"Ġcons":1281,"ike":1282,"Ġbase":1283,"Ġnorth":1284,"Ġreligion":1285,"//":1286,"con":1287,"fore":1288,"mo":1289,"Ġsa":1290,"Ġsk":1291,"Ġsal":1292,"itar":1293,"Ġresid":1294,"oss":1295,"Ġnationalcaps":1296,"Ġphil":1297,"Ġmidfielder":1298,"Ġsuccessor":1299,"ttp":1300,"Ġchampionship":1301,"Ġmichael":1302,"Ġretired":1303,"://":1304,"Ġsup":1305,"Ġsong":1306,"Ġcor":1307,"Ġpaul":1308,"ations":1309,"Ġoffic":1310,"Ġyouthclubs":1311,"Ġyoung":1312,"Ġbusiness":1313,"ep":1314,"rap":1315,"Ġze":1316,"Ġfive":1317,"Ġwere":1318,"Ġdep":1319,"ager":1320,"Ġtour":1321,"Ġval":1322,"Ġ1983":1323,"Ġunion":1324,"Ġ1974":1325,"Ġrecords":1326,"Ġcountry":1327,"Ġgroup":1328,"fted":1329,"jo":1330,"ks":1331,"lin":1332,"yer":1333,"Ġque":1334,"ony":1335,"Ġwin":1336,"Ġoh":1337,"Ġhttp":1338,"ator":1339,"ston":1340,"Ġwash":1341,"Ġfound":1342,"Ġalbum":1343,"fer":1344,"ual":1345,"Ġbet":1346,"Ġmor":1347,"Ġrece":1348,"adem":1349,"Ġ1987":1350,"Ġ1977":1351,"han":1352,"yn":1353,"leg":1354,"Ġtri":1355,"itz":1356,"urt":1357,"Ġrank":1358,"ova":1359,"Ġbasket":1360,"after":1361,"Ġruns":1362,"Ġbaseball":1363,"ko":1364,"sch":1365,"tal":1366,"Ġsign":1367,"Ġdied":1368,"Ġnfl":1369,"Ġinto":1370,"Ġforward":1371,"Ġ1989":1372,"ondon":1373,"Ġacadem":1374,"ney":1375,"oul":1376,"Ġsil":1377,"Ġsim":1378,"Ġwriter":1379,"Ġhouse":1380,"Ġdan":1381,"Ġden":1382,"Ġlondon":1383,"ago":1384,"Ġ1979":1385,"Ġhistory":1386,"Ġbasketball":1387,"ba":1388,"cis":1389,"ced":1390,"ones":1391,"Ġfather":1392,"Ġlong":1393,"Ġkore":1394,"ters":1395,"Ġbefore":1396,"Ġbook":1397,"Ġclubnumber":1398,"Ġperfor":1399,"Ġscience":1400,"ler":1401,"Ġx":1402,"Ġcam":1403,"aland":1404,"Ġma":1405,"Ġ1972":1406,"Ġsho":1407,"ived":1408,"Ġusa":1409,"Ġwashington":1410,"ling":1411,"ty":1412,"Ã¶":1413,"Ġend":1414,"Ġsoc":1415,"Ġpc":1416,"Ġinv":1417,"Ġinter":1418,"Ġinstitu":1419,"ating":1420,"Ġ1993":1421,"ished":1422,"Ġprim":1423,"Ġawards":1424,"Ġaustralia":1425,"Ġgermany":1426,"no":1427,"ough":1428,"rac":1429,"Ġare":1430,"Ġsam":1431,"Ġber":1432,"Ġbel":1433,"Ġcla":1434,"enti":1435,"Ġpain":1436,"Ġpenn":1437,"Ġmat":1438,"Ġmart":1439,"Ġwom":1440,"tes":1441,"Ġtra":1442,"Ġlu":1443,"Ġtex":1444,"Ġtest":1445,"Ġmayor":1446,"Ġgeneral":1447,"Ġdemoc":1448,"Ġzealand":1449,"fo":1450,"ari":1451,"Ġcre":1452,"ism":1453,"Ġjpg":1454,"Ġgold":1455,"Ġuntil":1456,"Ġrole":1457,"Ġ1968":1458,"Ġguitar":1459,"ology":1460,"Ġjackson":1461,"Ġrussian":1462,"tain":1463,"ues":1464,"vil":1465,"yle":1466,"zil":1467,"ĠÃ":1468,"Ġsum":1469,"Ġbre":1470,"Ġcup":1471,"Ġmill":1472,"Ġweb":1473,"Ġdel":1474,"Ġinstrument":1475,"Ġtor":1476,"Ġmedal":1477,"Ġmatches":1478,"nationality":1479,"cer":1480,"ful":1481,"tar":1482,"Ġes":1483,"any":1484,"Ġsolo":1485,"tim":1486,"ented":1487,"Ġport":1488,"Ġjim":1489,"Ġli":1490,"Ġred":1491,"Ġart":1492,"site":1493,"Ġ1966":1494,"Ġprofessor":1495,"Ġindian":1496,"Ġrepresent":1497,"Ġoffice":1498,"Ġsmith":1499,"ollow":1500,"Ġresidence":1501,"Ġpcupdate":1502,"gar":1503,"ition":1504,"oin":1505,"sb":1506,"ani":1507,"Ġson":1508,"amed":1509,"icago":1510,"ira":1511,"Ġjose":1512,"ages":1513,"Ġstri":1514,"Ġhead":1515,"ump":1516,"Ġgoal":1517,"Ġfrank":1518,"Ġbattle":1519,"Ġseasons":1520,"ency":1521,"Ġbrazil":1522,"Ġdesign":1523,"har":1524,"out":1525,"Äĩ":1526,"Ġent":1527,"Ġav":1528,"Ġaver":1529,"Ġbla":1530,"ena":1531,"Ġmel":1532,"Ġhen":1533,"ester":1534,"urch":1535,"ents":1536,"Ġarch":1537,"tics":1538,"Ġchicago":1539,"Ġvoc":1540,"Ġatl":1541,"Ġ1986":1542,"Ġshow":1543,"emb":1544,"ograp":1545,"Ġmusician":1546,"Ġbrown":1547,"Ġappeared":1548,"Ġhave":1549,"eter":1550,"hi":1551,"ten":1552,"Ġer":1553,"Ġcy":1554,"Ġfren":1555,"Ġfree":1556,"Ġhon":1557,"Ġhol":1558,"Ġdon":1559,"Ġnon":1560,"Ġgame":1561,"its":1562,"Ġem":1563,"veral":1564,"Ġonly":1565,"ief":1566,"Ġlab":1567,"ebut":1568,"ween":1569,"Ġassociation":1570,"Ġacademy":1571,"be":1572,"dom":1573,"pro":1574,"rist":1575,"syl":1576,"tin":1577,"Ġsome":1578,"rew":1579,"under":1580,"ates":1581,"Ġali":1582,"Ġchris":1583,"ida":1584,"Ġseveral":1585,"Ġbeing":1586,"Ġ1965":1587,"Ġfrancis":1588,"www":1589,"Ġmiss":1590,"Ġfrench":1591,"mon":1592,"vania":1593,"Ġut":1594,"Ġill":1595,"Ġice":1596,"Ġthir":1597,"Ġfar":1598,"Ġmore":1599,"Ġnov":1600,"Ġkar":1601,"sive":1602,"Ġvir":1603,"ried":1604,"Ġroman":1605,"resented":1606,"Ġtech":1607,"ersey":1608,"azz":1609,"Ġpennsyl":1610,"Ġpennsylvania":1611,"hand":1612,"pp":1613,"sk":1614,"ÃŃ":1615,"inal":1616,"ined":1617,"Ġmag":1618,"Ġown":1619,"Ġjud":1620,"itor":1621,"cher":1622,"Ġrich":1623,"Ġep":1624,"Ġchair":1625,"Ġrobert":1626,"Ġ1978":1627,"iff":1628,"Ġboard":1629,"Ġprev":1630,"kee":1631,"Ġproducer":1632,"Ġsummer":1633,"back":1634,"uch":1635,"Ġsl":1636,"Ġsur":1637,"enz":1638,"Ġmur":1639,"Ġdiv":1640,"Ġinc":1641,"Ġtom":1642,"Ġtown":1643,"Ġalleg":1644,"Ġplace":1645,"rib":1646,"Ġ1964":1647,"Ġjourn":1648,"Ġ1952":1649,"Ġ1954":1650,"Ġworked":1651,"Ġbats":1652,"Ġpolitical":1653,"Ġgrand":1654,"inning":1655,"Ġohio":1656,"Ġinstitute":1657,"Ġwomen":1658,"ca":1659,"eth":1660,"ize":1661,"ta":1662,"Ġest":1663,"Ġacc":1664,"Ġfollow":1665,"Ġmary":1666,"Ġdr":1667,"Ġjersey":1668,"Ġlit":1669,"Ġarmy":1670,"Ġyes":1671,"Ġele":1672,"Ġemp":1673,"Ġchurch":1674,"Ġ181":1675,"Ġ1960":1676,"Ġ1956":1677,"Ġ1944":1678,"Ġfrance":1679,"mark":1680,"Ġcanada":1681,"Ġdefender":1682,"Ġearly":1683,"Ġcross":1684,"Ġflor":1685,"Ġolympics":1686,"ek":1687,"ited":1688,"uro":1689,"ws":1690,"Ġmak":1691,"iction":1692,"itary":1693,"olic":1694,"Ġrela":1695,"Ġtotal":1696,"Ġchief":1697,"ratic":1698,"Ġprog":1699,"Ġ1963":1700,"Ġ1945":1701,"Ġmidd":1702,"Ġcolumb":1703,"Ġpublic":1704,"Ġcompeted":1705,"iet":1706,"ning":1707,"ria":1708,"turn":1709,"ula":1710,"orts":1711,"Ġcath":1712,"alth":1713,"Ġmod":1714,"Ġder":1715,"Ġdom":1716,"ama":1717,"Ġtre":1718,"uri":1719,"Ġlos":1720,"Ġkg":1721,"apan":1722,"Ġ1973":1723,"Ġshar":1724,"Ġ1958":1725,"Ġprince":1726,"Ġvictor":1727,"Ġrepublican":1728,"Ġalexander":1729,"Ġdemocratic":1730,"Ġaverage":1731,"Ġprevious":1732,"ais":1733,"ee":1734,"eg":1735,"men":1736,"ya":1737,"Ġver":1738,"int":1739,"Ġsix":1740,"Ġwicket":1741,"Ġten":1742,"Ġgl":1743,"ster":1744,"Ġrad":1745,"Ġ180":1746,"Ġprov":1747,"udd":1748,"Ġmanager":1749,"Ġappoin":1750,"Ġyouthyears":1751,"Ġsuccess":1752,"Ġkingdom":1753,"value":1754,"Ġelected":1755,"Ġleader":1756,"Ġjoseph":1757,"embly":1758,"ms":1759,"of":1760,"por":1761,"ring":1762,"su":1763,"Ġath":1764,"Ġben":1765,"ara":1766,"Ġca":1767,"Ġfamil":1768,"Ġmov":1769,"Ġod":1770,"Ġoper":1771,"edy":1772,"Ġjos":1773,"Ġtook":1774,"ishop":1775,"Ġ1947":1776,"Ġuk":1777,"Ġindia":1778,"Ġcounc":1779,"Ġits":1780,"flu":1781,"Ġstatlabel":1782,"Ġstatvalue":1783,"Ġgovernment":1784,"Ġbetween":1785,"Ġblack":1786,"gin":1787,"liam":1788,"nd":1789,"ob":1790,"singer":1791,"Ġair":1792,"Ġbill":1793,"Ġthen":1794,"Ġmad":1795,"Ġmike":1796,"Ġwood":1797,"ision":1798,"Ġhall":1799,"Ġhome":1800,"Ġnamed":1801,"Ġinflu":1802,"Ġang":1803,"Ġjer":1804,"berg":1805,"Ġeuro":1806,"ays":1807,"Ġcourt":1808,"akh":1809,"aker":1810,"Ġshort":1811,"ucation":1812,"Ġparliam":1813,"Ġcricket":1814,"Ġcolumn":1815,"Ġsocial":1816,"Ġtexas":1817,"Ġparliament":1818,"21":1819,"born":1820,"hy":1821,"iro":1822,"ium":1823,"rick":1824,"ved":1825,"Ġsub":1826,"Ġbal":1827,"Ġce":1828,"Ġthis":1829,"Ġpan":1830,"Ġmer":1831,"Ġwes":1832,"Ġnow":1833,"ase":1834,"ico":1835,"olk":1836,"ury":1837,"Ġarg":1838,"acts":1839,"Ġroy":1840,"Ġboth":1841,"Ġ1946":1842,"Ġscor":1843,"Ġtim":1844,"Ġrepresented":1845,"Ġassembly":1846,"Ġoverall":1847,"201":1848,"Ġthrough":1849,"Ġphilip":1850,"Ġreceived":1851,"Ġvocals":1852,"Ġfamily":1853,"Ġcouncil":1854,"work":1855,"arm":1856,"Ġciv":1857,"Ġcatch":1858,"Ġopen":1859,"Ġham":1860,"Ġnick":1861,"Ġtran":1862,"Ġjazz":1863,"Ġjapan":1864,"Ġry":1865,"adu":1866,"Ġtop":1867,"ots":1868,"idge":1869,"Ġvo":1870,"Ġmarried":1871,"Ġ1955":1872,"Ġyearsactive":1873,"Ġorgan":1874,"Ġedward":1875,"199":1876,"Ġcharles":1877,"Ġgeorg":1878,"ject":1879,"Ġofficer":1880,"Ġtechn":1881,"Ġflorida":1882,"Ġage":1883,"ines":1884,"onto":1885,"Ġbay":1886,"tiv":1887,"Ġmas":1888,"elly":1889,"use":1890,"ature":1891,"Ġlar":1892,"Ġreturn":1893,"Ġrac":1894,"Ġrug":1895,"ands":1896,"ety":1897,"Ġ185":1898,"Ġ1957":1899,"Ġmother":1900,"Ġmoham":1901,"Ġsuch":1902,"Ġassist":1903,"Ã¡n":1904,"burgh":1905,"lsb":1906,"Ġdaugh":1907,"Ġathle":1908,"bec":1909,"li":1910,"ming":1911,"mond":1912,"wan":1913,"Ġiv":1914,"Ġaff":1915,"Ġsain":1916,"alian":1917,"Ġpast":1918,"Ġmal":1919,"Ġmos":1920,"isla":1921,"Ġtak":1922,"unt":1923,"elf":1924,"Ġlife":1925,"vement":1926,"Ġ183":1927,"Ġross":1928,"Ġsports":1929,"Ġ1950":1930,"Ġ1951":1931,"Ġorder":1932,"Ġpartic":1933,"Ġbatting":1934,"Ġitaly":1935,"Ġpoet":1936,"inois":1937,"Ġtoronto":1938,"Ġillinois":1939,"Ġthird":1940,"Ġwickets":1941,"debut":1942,"ned":1943,"tro":1944,"Ġ#":1945,"Ġak":1946,"Ġasi":1947,"Ġbor":1948,"Ġbass":1949,"arch":1950,"Ġmy":1951,"tee":1952,"Ġnb":1953,"Ġjr":1954,"Ġga":1955,"elph":1956,"olf":1957,"Ġdev":1958,"ower":1959,"Ġ1971":1960,"uck":1961,"ellow":1962,"Ġcompany":1963,"Ġrecorded":1964,"Ġfilms":1965,"Ġtrad":1966,"Ġpeter":1967,"Ġmilitary":1968,"office":1969,"ville":1970,"Ġwebsite":1971,"Ġhenry":1972,"Ġvirgin":1973,"Ġrugby":1974,"bro":1975,"ho":1976,"rian":1977,"wor":1978,"za":1979,"ining":1980,"Ġsir":1981,"Ġpl":1982,"Ġpal":1983,"Ġmen":1984,"Ġhal":1985,"reen":1986,"Ġange":1987,"Ġjac":1988,"Ġisland":1989,"Ġimages":1990,"Ġbegan":1991,"Ġconn":1992,"Ġ1961":1993,"Ġ1962":1994,"Ġ1967":1995,"abeth":1996,"ecu":1997,"Ġ1932":1998,"Ġdrafted":1999,"Ġdebutteam":2000,"rison":2001,"Ġdefen":2002,"Ġirish":2003,"Ġgreat":2004,"Ġassociated":2005,"Ġsongwriter":2006,"epend":2007,"Ġsigned":2008,"Ġchristi":2009,"Ġcatholic":2010,"18":2011,"ae":2012,"car":2013,"dra":2014,"hen":2015,"ij":2016,"ng":2017,"ru":2018,"ray":2019,"Ġq":2020,"thur":2021,"tis":2022,"Ġfes":2023,"Ġfed":2024,"Ġmac":2025,"test":2026,"Ġnhl":2027,"Ġtur":2028,"els":2029,"ely":2030,"Ġlb":2031,"Ġkenn":2032,"Ġrap":2033,"ota":2034,"Ġ1975":2035,"Ġspe":2036,"Ġspain":2037,"Ġindepend":2038,"Ġ1929":2039,"Ġphys":2040,"ture":2041,"weight":2042,"Ġincluded":2043,"Ġmont":2044,"Ġsenior":2045,"Ġgovernor":2046,"Ġlegisla":2047,"Ġsuper":2048,"Ġeurope":2049,"ci":2050,"cons":2051,"gy":2052,"iÄĩ":2053,"lie":2054,"oy":2055,"rich":2056,"uel":2057,"va":2058,"xx":2059,"Ã£":2060,"Ġabo":2061,"thers":2062,"Ġfig":2063,"Ġmass":2064,"Ġdun":2065,"esh":2066,"Ġju":2067,"Ġgri":2068,"ita":2069,"ural":2070,"ently":2071,"Ġken":2072,"Ġkent":2073,"Ġrev":2074,"ado":2075,"iment":2076,"Ġalf":2077,"rael":2078,"ocal":2079,"Ġspec":2080,"Ġamerica":2081,"Ġ1938":2082,"anta":2083,"Ġsingle":2084,"Ġservic":2085,"bour":2086,"Ġworks":2087,"Ġclass":2088,"Ġwales":2089,"Ġchampionships":2090,"Ġdenmark":2091,"Ġjudge":2092,"Ġdivision":2093,"Ġjournalist":2094,"Ġangeles":2095,"Ġimagesize":2096,"ht":2097,"ila":2098,"ilad":2099,"rsb":2100,"yd":2101,"ye":2102,"Ġve":2103,"Ġbur":2104,"Ġbul":2105,"tice":2106,"eng":2107,"Ġol":2108,"Ġdar":2109,"lah":2110,"usse":2111,"ital":2112,"urs":2113,"Ġchina":2114,"uty":2115,"Ġrober":2116,"Ġlate":2117,"ific":2118,"Ġ1959":2119,"Ġboston":2120,"000":2121,"side":2122,"izabeth":2123,"Ġagent":2124,"Ġphilad":2125,"Ġeditor":2126,"Ġbrook":2127,"Ġcalled":2128,"Ġsteph":2129,"Ġgradu":2130,"Ġelection":2131,"Ġrepublic":2132,"Ġcivil":2133,"elphia":2134,"Ġvirginia":2135,"Ġphiladelphia":2136,"band":2137,"col":2138,"nes":2139,"rican":2140,"sa":2141,"wer":2142,"ints":2143,"Ġset":2144,"Ġftin":2145,"Ġfellow":2146,"Ġwife":2147,"Ġtheat":2148,"Ġdate":2149,"Ġnt":2150,"Ġnom":2151,"Ġlie":2152,"Ġline":2153,"Ġlang":2154,"Ġisrael":2155,"earch":2156,"Ġstart":2157,"Ġalbert":2158,"ards":2159,"Ġround":2160,"Ġrose":2161,"ained":2162,"akist":2163,"Ġcong":2164,"Ġjoined":2165,"achus":2166,"souri":2167,"Ġcarl":2168,"ema":2169,"Ġ1931":2170,"Ġ1933":2171,"Ġpolish":2172,"urne":2173,"rica":2174,"Ġafrican":2175,"Ġitalian":2176,"anna":2177,"Ġcommit":2178,"ances":2179,"Ġmissouri":2180,"Ġkorean":2181,"ribu":2182,"Ġradio":2183,"Ġappointed":2184,"Ġconnec":2185,"Ã£o":2186,"ble":2187,"dy":2188,"during":2189,"ga":2190,"ste":2191,"uz":2192,"inese":2193,"ona":2194,"Ġsom":2195,"tival":2196,"ret":2197,"Ġdu":2198,"Ġnat":2199,"Ġtro":2200,"Ġjones":2201,"Ġlist":2202,"Ġko":2203,"Ġarthur":2204,"Ġiss":2205,"Ġeth":2206,"Ġchinese":2207,"Ġvan":2208,"etts":2209,"lyn":2210,"ranch":2211,"Ġ1940":2212,"Ġ1948":2213,"Ġcarol":2214,"Ġ1935":2215,"Ġmany":2216,"member":2217,"Ġadam":2218,"Ġcentre":2219,"Ġnotable":2220,"velop":2221,"Ġstarted":2222,"stituency":2223,"Ġpopular":2224,"Ġderby":2225,"Ġpreviously":2226,"Ġtimes":2227,"Ġfestival":2228,"Ġmassachus":2229,"Ġmassachusetts":2230,"bal":2231,"gen":2232,"lam":2233,"mit":2234,"ola":2235,"other":2236,"par":2237,"rat":2238,"war":2239,"Ġsys":2240,"Ġball":2241,"enant":2242,"Ġfight":2243,"Ġpet":2244,"Ġpakist":2245,"tel":2246,"Ġob":2247,"Ġdrum":2248,"Ġanth":2249,"ros":2250,"Ġta":2251,"Ġtv":2252,"Ġturn":2253,"Ġandrew":2254,"Ġgra":2255,"chester":2256,"Ġdevelop":2257,"Ġkh":2258,"Ġkey":2259,"Ġray":2260,"Ġalong":2261,"Ġontar":2262,"utenant":2263,"owa":2264,"owell":2265,"Ġled":2266,"Ġteach":2267,"Ġ1953":2268,"Ġmex":2269,"Ġbob":2270,"ireland":2271,"Ġindust":2272,"ization":2273,"Ġbron":2274,"bourne":2275,"Ġactive":2276,"Ġ1911":2277,"ences":2278,"sport":2279,"Ġ250":2280,"Ġsmall":2281,"Ġresearch":2282,"Ġjean":2283,"Ġfreder":2284,"Ġqueen":2285,"Ġsilver":2286,"ential":2287,"Ġjimmy":2288,"Ġhonor":2289,"handed":2290,"Ġrichard":2291,"keeper":2292,"Ġfollowing":2293,"Ġturk":2294,"Ġsyste":2295,"Ġontario":2296,"wa":2297,"yo":2298,"Ġireland":2299,"Ġsav":2300,"Ġside":2301,"ties":2302,"Ġmma":2303,"Ġdid":2304,"lav":2305,"une":2306,"unk":2307,"olis":2308,"Ġlor":2309,"Ġlight":2310,"Ġke":2311,"Ġrem":2312,"Ġarts":2313,"aged":2314,"Ġchrist":2315,"iance":2316,"Ġvar":2317,"ets":2318,"Ġlee":2319,"osp":2320,"Ġmark":2321,"Ġ1937":2322,"Ġ1928":2323,"ized":2324,"Ġphot":2325,"Ġprinc":2326,"Ġminor":2327,"Ġadmin":2328,"Ġcommun":2329,"Ġsteve":2330,"Ġelizabeth":2331,"Ġcenter":2332,"Ġheld":2333,"Ġkorea":2334,"Ġenter":2335,"Ġmelbourne":2336,"Ġchairman":2337,"Ġmiddle":2338,"Ġwestern":2339,"Ġdaughter":2340,"Ġabout":2341,"49":2342,"bor":2343,"ction":2344,"hu":2345,"way":2346,"Ã¤":2347,"Ġif":2348,"instrument":2349,"order":2350,"Ġbishop":2351,"aron":2352,"Ġche":2353,"Ġfame":2354,"Ġpres":2355,"Ġpress":2356,"Ġwil":2357,"ise":2358,"iss":2359,"ison":2360,"Ġhit":2361,"Ġhav":2362,"chi":2363,"ura":2364,"Ġdec":2365,"Ġka":2366,"Ġreal":2367,"tical":2368,"Ġrh":2369,"Ġriver":2370,"ador":2371,"omp":2372,"Ġstr":2373,"Ġstan":2374,"act":2375,"Ġvi":2376,"Ġwhile":2377,"Ġ184":2378,"Ġfounder":2379,"Ġproject":2380,"Ġjoe":2381,"ended":2382,"tsburgh":2383,"ipl":2384,"Ġbox":2385,"Ġ50":2386,"Ġ1942":2387,"Ġ1949":2388,"ffield":2389,"less":2390,"Ġ1936":2391,"Ġ1923":2392,"Ġ1927":2393,"Ġbrad":2394,"ahl":2395,"Ġiowa":2396,"Ġexp":2397,"phy":2398,"Ġabd":2399,"Ġearned":2400,"Ġdisc":2401,"Ġthrows":2402,"Ġpitcher":2403,"Ġpittsburgh":2404,"Ġscotland":2405,"Ġgoalkeeper":2406,"Ġempire":2407,"Ġprogram":2408,"ĠjosÃ©":2409,"worth":2410,"Ġeuropean":2411,"Ġtheatre":2412,"80":2413,"bar":2414,"don":2415,"den":2416,"day":2417,"ios":2418,"ml":2419,"ped":2420,"rd":2421,"ration":2422,"ski":2423,"Ġach":2424,"Ġsister":2425,"Ġsoci":2426,"Ġcorn":2427,"Ġcard":2428,"Ġfa":2429,"Ġfer":2430,"Ġfiction":2431,"Ġpower":2432,"temp":2433,"Ġox":2434,"Ġhold":2435,"Ġhung":2436,"Ġday":2437,"Ġdri":2438,"Ġty":2439,"Ġgir":2440,"Ġram":2441,"Ġform":2442,"Ġecon":2443,"Ġseven":2444,"Ġroad":2445,"oph":2446,"lands":2447,"eller":2448,"Ġknight":2449,"Ġ1924":2450,"Ġexper":2451,"Ġafrica":2452,"Ġdebutdate":2453,"Ġdebutyear":2454,"bury":2455,"Ġwilliams":2456,"Ġjeff":2457,"john":2458,"Ġquebec":2459,"ould":2460,"Ġdaniel":2461,"Ġprime":2462,"enzo":2463,"Ġvictoria":2464,"Ġscored":2465,"Ġphilipp":2466,"Ġtrans":2467,"Ġassistant":2468,"Ġkennedy":2469,"Ġadminist":2470,"17":2471,"cow":2472,"dr":2473,"ja":2474,"ny":2475,"pick":2476,"sen":2477,"ured":2478,"Ġsat":2479,"Ġcze":2480,"Ġmath":2481,"Ġwent":2482,"Ġwinning":2483,"Ġwould":2484,"ission":2485,"Ġdi":2486,"Ġng":2487,"Ġtal":2488,"Ġgar":2489,"ily":2490,"ada":2491,"Ġstre":2492,"Ġstage":2493,"Ġstock":2494,"Ġstati":2495,"ider":2496,"Ġvol":2497,"Ġ33":2498,"esse":2499,"Ġsport":2500,"Ġ1969":2501,"Ġmoder":2502,"Ġ1926":2503,"Ġsingh":2504,"Ġexecu":2505,"azi":2506,"Ġblue":2507,"Ġblues":2508,"bridge":2509,"Ġcroati":2510,"Ġmcg":2511,"Ġcompeti":2512,"Ġscottish":2513,"Ġpainting":2514,"Ġmartin":2515,"Ġstriker":2516,"Ġallegiance":2517,"Ġmodel":2518,"Ġsuccessful":2519,"Ġmoscow":2520,"Ġnbsp":2521,"Ġchristian":2522,"Ġroberts":2523,"Ġbrooklyn":2524,"Ġlieutenant":2525,"Ġethn":2526,"Ġcarolina":2527,"Ġeconom":2528,"12":2529,"fe":2530,"from":2531,"final":2532,"hing":2533,"ius":2534,"oun":2535,"ost":2536,"vor":2537,"zen":2538,"Ã¢":2539,"Ġupdate":2540,"era":2541,"they":2542,"Ġsar":2543,"Ġsame":2544,"Ġcle":2545,"Ġfif":2546,"Ġpa":2547,"Ġperson":2548,"league":2549,"Ġwrit":2550,"Ġthey":2551,"Ġok":2552,"Ġhand":2553,"Ġhog":2554,"Ġnik":2555,"ross":2556,"Ġandr":2557,"ceed":2558,"Ġlive":2559,"bers":2560,"Ġdetro":2561,"Ġkr":2562,"Ġrest":2563,"star":2564,"Ġraj":2565,"Ġvis":2566,"Ġselec":2567,"uman":2568,"ople":2569,"ired":2570,"ives":2571,"ivid":2572,"Ġ1939":2573,"ogn":2574,"Ġpoland":2575,"ught":2576,"Ġschol":2577,"Ġcomple":2578,"Ġserving":2579,"Ġbrother":2580,"Ġpost":2581,"Ġpoints":2582,"Ġsecret":2583,"Ġappearances":2584,"Ġcontribu":2585,"Ġdoub":2586,"ities":2587,"Ġmetal":2588,"Ġbooks":2589,"Ġinvol":2590,"Ġclay":2591,"Ġbattles":2592,"Ġlabel":2593,"Ġalias":2594,"Ġfrancisco":2595,"Ġgeorgia":2596,"Ġaffair":2597,"Ġsaint":2598,"Ġindependent":2599,"Ġspecial":2600,"Ġbulgar":2601,"Ġachie":2602,"Ġsociety":2603,"Ġczech":2604,"Ġdetroit":2605,"83":2606,"cu":2607,"cord":2608,"da":2609,"names":2610,"ple":2611,"present":2612,"win":2613,"wing":2614,"Äį":2615,"Ġsas":2616,"Ġsov":2617,"Ġsuc":2618,"Ġbi":2619,"Ġbig":2620,"Ġbank":2621,"tig":2622,"time":2623,"arian":2624,"Ġcred":2625,"isa":2626,"amer":2627,"Ġjord":2628,"Ġgian":2629,"Ġgran":2630,"oln":2631,"illa":2632,"igan":2633,"Ġdeg":2634,"ticut":2635,"Ġra":2636,"Ġfore":2637,"against":2638,"oma":2639,"Ġchap":2640,"iano":2641,"orney":2642,"Ġvel":2643,"Ġvik":2644,"umb":2645,"Ġrob":2646,"eyears":2647,"Ġsher":2648,"icketer":2649,"Ġserb":2650,"Ġscreen":2651,"ctoral":2652,"Ġtig":2653,"class":2654,"Ġcompos":2655,"Ġjohnson":2656,"Ġsheffield":2657,"Ġfinish":2658,"Ġ1894":2659,"Ġ1895":2660,"Ġacting":2661,"Ġrunning":2662,"Ġcricketer":2663,"Ġiran":2664,"incoln":2665,"Ġstars":2666,"Ġiii":2667,"Ġattended":2668,"Ġleading":2669,"Ġfourth":2670,"Ġfinalteam":2671,"Ã³n":2672,"Ġpatrick":2673,"Ġbowling":2674,"Ġdepart":2675,"ract":2676,"Ġmoved":2677,"Ġgriff":2678,"Ġconnecticut":2679,"members":2680,"Ġoxford":2681,"Ġstatis":2682,"Ġmodern":2683,"Ġupdated":2684,"Ġsoviet":2685,"branch":2686,"cle":2687,"cus":2688,"ds":2689,"fied":2690,"kn":2691,"mor":2692,"mad":2693,"sr":2694,"ving":2695,"à¤":2696,"Ġsold":2697,"org":2698,"Ġba":2699,"Ġcall":2700,"Ġthan":2701,"Ġpen":2702,"Ġhay":2703,"Ġhill":2704,"real":2705,"Ġinn":2706,"Ġoften":2707,"uss":2708,"urce":2709,"ats":2710,"Ġloss":2711,"Ġislam":2712,"Ġhealth":2713,"uston":2714,"iew":2715,"Ġspent":2716,"Ġlat":2717,"ody":2718,"Ġmeck":2719,"Ġgood":2720,"Ġprem":2721,"Ġrecogn":2722,"Ġ1930":2723,"Ġeducation":2724,"Ġminnes":2725,"Ġaustria":2726,"Ġfrances":2727,"Ġawarded":2728,"Ġwarren":2729,"Ġguard":2730,"marie":2731,"Ġdefe":2732,"Ġ1908":2733,"Ġlawyer":2734,"Ġpeople":2735,"Ġhighest":2736,"Ġattorney":2737,"Ġrussia":2738,"Ġtraining":2739,"Ġcycl":2740,"Ġmagaz":2741,"Ġcolumbus":2742,"Ġdomin":2743,"Ġargent":2744,"Ġcatches":2745,"Ġreturned":2746,"Ġracing":2747,"Ġserviceyears":2748,"color":2749,"Ġcongress":2750,"Ġcommittee":2751,"Ġhaving":2752,"Ġaffairs":2753,"Ġsucceed":2754,"Ġminnesota":2755,"30":2756,"bc":2757,"fan":2758,"house":2759,"ient":2760,"ni":2761,"ox":2762,"pa":2763,"sc":2764,"ually":2765,"Ãº":2766,"ery":2767,"Ġbach":2768,"Ġcri":2769,"Ġthere":2770,"alo":2771,"Ġmun":2772,"Ġmik":2773,"Ġwis":2774,"Ġway":2775,"isted":2776,"Ġhamil":2777,"aska":2778,"amo":2779,"Ġgh":2780,"Ġgy":2781,"Ġgil":2782,"itch":2783,"Ġlin":2784,"igor":2785,"Ġku":2786,"Ġrand":2787,"Ġash":2788,"oto":2789,"Ġvas":2790,"arden":2791,"Ġplayers":2792,"shall":2793,"erset":2794,"Ġconstituency":2795,"ablish":2796,"Ġ45":2797,"Ġ1943":2798,"Ġ1934":2799,"Ġ1925":2800,"Ġ179":2801,"Ġservice":2802,"Ġzim":2803,"Ġadd":2804,"Ġadv":2805,"Ġcommission":2806,"Ġinclude":2807,"Ġdavis":2808,"Ġtrack":2809,"Ġdesc":2810,"Ġattack":2811,"tillo":2812,"Ġoriginal":2813,"Ġhouston":2814,"Ġolympic":2815,"Ġdeputy":2816,"Ġfounded":2817,"Ġtrial":2818,"school":2819,"Ġperforman":2820,"Ġliber":2821,"Ġatlanta":2822,"Ġliter":2823,"Ġparticip":2824,"Ġjacob":2825,"html":2826,"Ġntupdate":2827,"Ġnomin":2828,"Ġfrederick":2829,"instrumentalist":2830,"finalyear":2831,"Ġforeign":2832,"Ġcomposer":2833,"Ġhamilton":2834,"10":2835,"aff":2836,"cas":2837,"do":2838,"iod":2839,"ji":2840,"james":2841,"kh":2842,"person":2843,"uf":2844,"uer":2845,"vin":2846,"yan":2847,"yers":2848,"Äĥ":2849,"Ġast":2850,"erv":2851,"thod":2852,"Ġsi":2853,"Ġsid":2854,"Ġbin":2855,"Ġbang":2856,"Ġ100":2857,"aria":2858,"Ġcir":2859,"Ġciti":2860,"Ġmach":2861,"Ġthem":2862,"Ġhow":2863,"Ġhugh":2864,"rey":2865,"Ġdor":2866,"Ġdown":2867,"Ġdog":2868,"Ġdanc":2869,"ament":2870,"Ġanother":2871,"iting":2872,"chen":2873,"ili":2874,"Ġlincoln":2875,"Ġalger":2876,"Ġeast":2877,"Ġvon":2878,"uba":2879,"Ġwhit":2880,"Ġfox":2881,"Ġ36":2882,"Ġnever":2883,"Ġnebr":2884,"Ġmaria":2885,"ions":2886,"Ġconfer":2887,"avy":2888,"Ġcaptain":2889,"Ġ49":2890,"iving":2891,"oker":2892,"Ġinduc":2893,"Ġindivid":2894,"teams":2895,"Ġbrian":2896,"Ġagain":2897,"Ġprac":2898,"Ġworking":2899,"Ġperiod":2900,"Ġbased":2901,"Ġ1890":2902,"Ġ1917":2903,"Ġcharac":2904,"Ġcrim":2905,"Ġearl":2906,"Ġcentury":2907,"Ġcontin":2908,"Ġregular":2909,"Ġswed":2910,"Ġpublished":2911,"Ġfeat":2912,"Ġalbums":2913,"Ġsilva":2914,"Ġshoots":2915,"Ġbrazilian":2916,"ographer":2917,"Ġestablish":2918,"Ġlittle":2919,"Ġroyal":2920,"Ġnickname":2921,"Ġathletic":2922,"debutyear":2923,"archive":2924,"Ġlegislative":2925,"Ġsomerset":2926,"Ġderbyshire":2927,"Ġsask":2928,"american":2929,"Ġdepartment":2930,"Ġpremier":2931,"Ġcitizen":2932,"Ġnebraska":2933,"13":2934,"kins":2935,"lor":2936,"uce":2937,"ures":2938,"wh":2939,"with":2940,"wood":2941,"xt":2942,"yce":2943,"Ã§":2944,"Ġur":2945,"Ġalab":2946,"Ġcem":2947,"Ġfred":2948,"Ġpot":2949,"Ġmu":2950,"Ġwing":2951,"Ġhu":2952,"Ġhear":2953,"Ġhod":2954,"Ġhits":2955,"rest":2956,"Ġnig":2957,"Ġnative":2958,"Ġtack":2959,"Ġjust":2960,"Ġjak":2961,"cel":2962,"elin":2963,"chan":2964,"ata":2965,"Ġlim":2966,"Ġkelly":2967,"head":2968,"Ġran":2969,"Ġren":2970,"Ġforce":2971,"agu":2972,"Ġtourn":2973,"sider":2974,"anding":2975,"Ġever":2976,"Ġcher":2977,"acy":2978,"Ġundra":2979,"Ġpros":2980,"manager":2981,"ordon":2982,"Ġserge":2983,"Ġmovement":2984,"Ġjunior":2985,"Ġmanage":2986,"Ġteams":2987,"Ġ150":2988,"Ġmembers":2989,"Ġfinland":2990,"Ġfinished":2991,"ricin":2992,"Ġbarry":2993,"Ġmedical":2994,"Ġgreg":2995,"Ġfinaldate":2996,"Ġsimp":2997,"Ġdeliver":2998,"Ġutc":2999,"Ġelect":3000,"Ġprovid":3001,"Ġorganization":3002,"Ġdefense":3003,"Ġjuan":3004,"Ġalfred":3005,"bourg":3006,"Ġissue":3007,"parents":3008,"Ġpakistan":3009,"Ġexecutive":3010,"Ġethnic":3011,"Ġscholar":3012,"Ġmagazine":3013,"Ġalabama":3014,"Ġundrafted":3015,"25":3016,"67":3017,"``":3018,"can":3019,"dav":3020,"dney":3021,"idate":3022,"kov":3023,"ness":3024,"png":3025,"right":3026,"song":3027,"tr":3028,"tan":3029,"vocal":3030,"well":3031,"zer":3032,"Ä±":3033,"Åį":3034,"Ġaut":3035,"ini":3036,"Ġsaw":3037,"Ġbil":3038,"Ġbud":3039,"are":3040,"Ġcame":3041,"Ġcra":3042,"Ġfr":3043,"Ġpir":3044,"Ġmot":3045,"teen":3046,"Ġhop":3047,"Ġhaw":3048,"Ġdif":3049,"Ġdram":3050,"Ġnu":3051,"ĠnÃ©":3052,"amous":3053,"education":3054,"Ġjon":3055,"Ġjus":3056,"Ġglo":3057,"elle":3058,"ito":3059,"ato":3060,"Ġkir":3061,"Ġreach":3062,"Ġron":3063,"imi":3064,"anda":3065,"Ġaltern":3066,"oting":3067,"iah":3068,"utch":3069,"istol":3070,"oslav":3071,"ression":3072,"Ġmarshall":3073,"udw":3074,"ovak":3075,"wards":3076,"ffalo":3077,"Ġ1920":3078,"Ġparis":3079,"Ġbatted":3080,"Ġ1916":3081,"Ġbaron":3082,"Ġsource":3083,"Ġcentral":3084,"ologist":3085,"Ġmichigan":3086,"vely":3087,"ansas":3088,"Ġannual":3089,"Ġbuffalo":3090,"Ġstudies":3091,"Ġevents":3092,"Ġconserv":3093,"Ġofficial":3094,"Ġvalley":3095,"Ġdesigner":3096,"etery":3097,"Ġmissis":3098,"Ġeston":3099,"Ġcolumbia":3100,"Ġcolumns":3101,"Ġceo":3102,"works":3103,"Ġtechnology":3104,"Ġhalf":3105,"Ġcarlos":3106,"Ġdrums":3107,"Ġbronze":3108,"Ġsystem":3109,"Ġvarious":3110,"Ġprincess":3111,"Ġphilippines":3112,"Ġmathema":3113,"Ġsecretary":3114,"Ġinvolved":3115,"known":3116,"Ġdancer":3117,"Ġcemetery":3118,"Ġtournament":3119,"ricinfo":3120,"Ġalternative":3121,"35":3122,"45":3123,"76":3124,"bl":3125,"bs":3126,"bil":3127,"ef":3128,"eum":3129,"lit":3130,"mich":3131,"nik":3132,"oth":3133,"over":3134,"rated":3135,"Âł":3136,"Ġ$":3137,"Ġic":3138,"inz":3139,"Ġbol":3140,"arter":3141,"Ġcm":3142,"Ġcab":3143,"Ġfem":3144,"Ġfern":3145,"Ġfolk":3146,"Ġpers":3147,"Ġpion":3148,"Ġpass":3149,"Ġpoker":3150,"Ġwel":3151,"Ġwat":3152,"tein":3153,"Ġdick":3154,"amon":3155,"Ġanne":3156,"row":3157,"Ġjump":3158,"Ġgall":3159,"Ġgib":3160,"Ġgordon":3161,"enty":3162,"ators":3163,"Ġluc":3164,"Ġkim":3165,"stump":3166,"agi":3167,"sia":3168,"omb":3169,"Ġyards":3170,"vet":3171,"apolis":3172,"Ġvice":3173,"ett":3174,"Ġseoul":3175,"mero":3176,"ugu":3177,"ugoslav":3178,"Ġ32":3179,"Ġcoast":3180,"Ġ09":3181,"result":3182,"Ġimp":3183,"Ġimport":3184,"Ġspan":3185,"Ġlady":3186,"Ġconv":3187,"Ġconsider":3188,"Ġnews":3189,"Ġcolor":3190,"Ġ55":3191,"oka":3192,"Ġengine":3193,"Ġ1922":3194,"Ġmuseum":3195,"Ġeduc":3196,"Ġsingles":3197,"Ġrecording":3198,"Ġweek":3199,"Ġ1896":3200,"Ġ1913":3201,"Ġallen":3202,"Ġharv":3203,"Ġ1909":3204,"Ġproduction":3205,"Ġcontro":3206,"Ġlasttest":3207,"Ġregiment":3208,"Ġprize":3209,"Ġsax":3210,"Ġpaulo":3211,"Ġbusinessman":3212,"Ġbreak":3213,"Ġesp":3214,"Ġstrike":3215,"Ġatlan":3216,"ograph":3217,"Ġdonald":3218,"Ġnovel":3219,"Ġepis":3220,"Ġspeaker":3221,"Ġmontreal":3222,"consin":3223,"lahoma":3224,"Ġdevelopment":3225,"Ġindustry":3226,"Ġholds":3227,"Ġgirls":3228,"Ġstreet":3229,"Ġoklahoma":3230,"Ġclayton":3231,"Ġbulgaria":3232,"Ġchapman":3233,"Ġdefeated":3234,"Ġsucceeded":3235,"Ġwisconsin":3236,"Ġmanagement":3237,"Ġdeliveries":3238,"songwriter":3239,"stumpings":3240,"04":3241,"16":3242,"ban":3243,"bab":3244,"bane":3245,"fr":3246,"full":3247,"king":3248,"lim":3249,"mal":3250,"ps":3251,"pri":3252,"sel":3253,"tory":3254,"ute":3255,"will":3256,"web":3257,"ÅĤ":3258,"à¸":3259,"ĠÅ":3260,"ĠÐ":3261,"this":3262,"Ġsug":3263,"ories":3264,"Ġbon":3265,"Ġbad":3266,"till":3267,"tives":3268,"tiÄĩ":3269,"Ġfal":3270,"Ġful":3271,"Ġfamous":3272,"alif":3273,"Ġps":3274,"Ġpad":3275,"Ġpod":3276,"lean":3277,"Ġmi":3278,"Ġmul":3279,"Ġmain":3280,"Ġwolf":3281,"Ġoak":3282,"record":3283,"Ġdie":3284,"Ġnar":3285,"Ġnel":3286,"Ġnine":3287,"asa":3288,"laus":3289,"ateur":3290,"Ġlig":3291,"Ġludw":3292,"Ġkw":3293,"Ġformed":3294,"sipp":3295,"ima":3296,"Ġstyle":3297,"Ġyugoslav":3298,"ulture":3299,"Ġeag":3300,"Ġeight":3301,"ians":3302,"otti":3303,"Ġsee":3304,"Ġsele":3305,"Ġseat":3306,"Ġlew":3307,"Ġlevel":3308,"Ġwhite":3309,"ists":3310,"rie":3311,"Ġ35":3312,"Ġ38":3313,"Ġcoul":3314,"Ġ03":3315,"Ġ08":3316,"ude":3317,"Ġspart":3318,"Ġshane":3319,"endor":3320,"ode":3321,"Ġ60":3322,"Ġcarr":3323,"oke":3324,"Ġmanchester":3325,"Ġaging":3326,"Ġagric":3327,"ahls":3328,"Ġactiv":3329,"Ġsouthern":3330,"insti":3331,"Ġcommand":3332,"Ġmedia":3333,"Ġdraftpick":3334,"afat":3335,"Ġstatus":3336,"Ġharrison":3337,"Ġsoul":3338,"Ġmonth":3339,"Ġquarter":3340,"ronic":3341,"Ġsenate":3342,"Ġhost":3343,"Ġsydney":3344,"Ġcastillo":3345,"Ġfivefor":3346,"Ġwinter":3347,"Ġmax":3348,"Ġberlin":3349,"Ġmillion":3350,"times":3351,"Ġsometimes":3352,"Ġmiddles":3353,"Ġvery":3354,"Ġtenfor":3355,"Ġopera":3356,"Ġasia":3357,"Ġfederal":3358,"Ġphysic":3359,"Ġkeybo":3360,"Ġturkey":3361,"Ġentertain":3362,"Ġboxer":3363,"Ġcompetition":3364,"Ġpersonal":3365,"Ġjordan":3366,"Ġgrant":3367,"Ġdegree":3368,"Ġgriffin":3369,"Ġcircu":3370,"Ġconference":3371,"Ġindividual":3372,"Ġethnicity":3373,"Ġjustice":3374,"Ġmississipp":3375,"Ġengineer":3376,"Ġharvard":3377,"fullname":3378,"Ġmississippi":3379,"24":3380,"26":3381,"87":3382,"89":3383,"aud":3384,"die":3385,"dale":3386,"fc":3387,"fran":3388,"gr":3389,"ged":3390,"gation":3391,"hol":3392,"ii":3393,"ien":3394,"kin":3395,"low":3396,"our":3397,"po":3398,"rid":3399,"town":3400,"wick":3401,"zar":3402,"Ã´":3403,"Ġ%":3404,"Ġern":3405,"inton":3406,"onst":3407,"Ġsri":3408,"Ġsqu":3409,"Ġsamp":3410,"Ġbull":3411,"Ġbudd":3412,"ark":3413,"Ġcat":3414,"Ġcand":3415,"Ġfk":3416,"Ġfund":3417,"Ġflo":3418,"Ġfair":3419,"let":3420,"Ġmess":3421,"Ġwid":3422,"Ġtheory":3423,"Ġothers":3424,"Ġhy":3425,"Ġhip":3426,"Ġhans":3427,"Ġhesse":3428,"Ġhuman":3429,"rep":3430,"Ġ1919":3431,"Ġdol":3432,"Ġdere":3433,"Ġdance":3434,"Ġinte":3435,"Ġanal":3436,"Ġjay":3437,"Ġgal":3438,"elor":3439,"Ġker":3440,"Ġkill":3441,"Ġkansas":3442,"tico":3443,"Ġrace":3444,"Ġforces":3445,"agh":3446,"Ġchart":3447,"ott":3448,"Ġvac":3449,"Ġleban":3450,"ries":3451,"Ġroles":3452,"Ġpromin":3453,"Ġpromo":3454,"Ġ06":3455,"Ġ07":3456,"iem":3457,"Ġlake":3458,"ains":3459,"aki":3460,"Ġconst":3461,"Ġ40":3462,"Ġ46":3463,"Ġ54":3464,"Ġindones":3465,"Ġcounsel":3466,"thern":3467,"Ġbrun":3468,"Ġaged":3469,"Ġcollection":3470,"form":3471,"ignon":3472,"igned":3473,"Ġadvis":3474,"Ġmusical":3475,"Ġext":3476,"Ġbroad":3477,"Ġ1893":3478,"Ġ1899":3479,"ierre":3480,"Ġ1910":3481,"Ġ1915":3482,"Ġnorthern":3483,"Ġguy":3484,"Ġcommon":3485,"Ġsteven":3486,"ailed":3487,"enced":3488,"Ġeva":3489,"Ġ225":3490,"atives":3491,"Ġsof":3492,"dez":3493,"Ġstudied":3494,"Ġ1886":3495,"Ġhelped":3496,"Ġbowl":3497,"lbs":3498,"Ġsoccer":3499,"Ġpainter":3500,"Ġcreated":3501,"Ġrepresentatives":3502,"outs":3503,"Ġmurder":3504,"Ġbatsman":3505,"Ġmaking":3506,"Ġtrevor":3507,"Ġprovince":3508,"Ġmanagerclubs":3509,"Ġinfluences":3510,"Ġryan":3511,"Ġvoice":3512,"Ã¡ndez":3513,"Ġmalay":3514,"Ġfighting":3515,"Ġmexican":3516,"Ġadministration":3517,"Ġselected":3518,"Ġserbian":3519,"Ġsoldier":3520,"Ġaddition":3521,"Ġsidney":3522,"Ġinducted":3523,"Ġcharacter":3524,"Ġfemale":3525,"Ġpioneer":3526,"Ġspanish":3527,"Ġconsidered":3528,"institu":3529,"Ġcircuit":3530,"01":3531,"11":3532,"23":3533,"29":3534,"33":3535,"55":3536,"ao":3537,"bishop":3538,"cor":3539,"ex":3540,"gre":3541,"gers":3542,"garden":3543,"hag":3544,"ias":3545,"jan":3546,"jos":3547,"jÃ©":3548,"mas":3549,"mel":3550,"more":3551,"nut":3552,"pt":3553,"tz":3554,"vador":3555,"west":3556,"wins":3557,"zi":3558,"Å¡":3559,"Ð¸":3560,"à´":3561,"Ġ!":3562,"Ġ*":3563,"Ġil":3564,"eration":3565,"thro":3566,"inet":3567,"Ġsv":3568,"Ġsus":3569,"Ġsou":3570,"ĠsÃ£o":3571,"Ġbern":3572,"Ġbaker":3573,"tier":3574,"Ġthor":3575,"Ġfut":3576,"Ġfade":3577,"Ġfron":3578,"ala":3579,"Ġporn":3580,"leton":3581,"Ġmend":3582,"Ġmold":3583,"Ġwins":3584,"Ġomar":3585,"Ġhc":3586,"Ġhor":3587,"Ġhur":3588,"Ġhosp":3589,"Ġdyn":3590,"Ġdipl":3591,"Ġnear":3592,"Ġnet":3593,"Ġnazi":3594,"asper":3595,"Ġjar":3596,"eld":3597,"che":3598,"cht":3599,"Ġlas":3600,"Ġland":3601,"Ġlanc":3602,"Ġlocal":3603,"Ġresp":3604,"ader":3605,"eargarden":3606,"andro":3607,"Ġyale":3608,"Ġcham":3609,"Ġchad":3610,"Ġheavy":3611,"ids":3612,"idebut":3613,"app":3614,"Ġven":3615,"aya":3616,"aye":3617,"owski":3618,"Ġplaced":3619,"Ġlet":3620,"umon":3621,"Ġromero":3622,"Ġbeau":3623,"Ġmarc":3624,"Ġcommer":3625,"Ġconc":3626,"Ġconf":3627,"Ġconcer":3628,"Ġjoh":3629,"acker":3630,"Ġcolon":3631,"abl":3632,"Ġheightft":3633,"Ġpolice":3634,"Ġjung":3635,"rence":3636,"Ġ74":3637,"ments":3638,"Ġbrent":3639,"Ġpark":3640,"Ġsinging":3641,"quently":3642,"Ġzag":3643,"196":3644,"ampa":3645,"Ġtwenty":3646,"insk":3647,"encar":3648,"Ġmedium":3649,"Ġdraftyear":3650,"new":3651,"Ġharry":3652,"Ġharper":3653,"Ġrushing":3654,"ensen":3655,"Ġhighschool":3656,"2008":3657,"Ġproduced":3658,"veland":3659,"Ġamateur":3660,"Ġcontract":3661,"Ġrelease":3662,"Ġsenator":3663,"Ġartists":3664,"Ġmclean":3665,"Ã¼r":3666,"Ġcase":3667,"Ġsupport":3668,"Ġcorpor":3669,"Ġwinner":3670,"Ġbetter":3671,"Ġcamm":3672,"Ã¶n":3673,"Ġended":3674,"Ġfranklin":3675,"Ġhenri":3676,"Ġfreeman":3677,"mont":3678,"Ġowner":3679,"Ġodidebut":3680,"Ġangel":3681,"Ġcatcher":3682,"Ġmaster":3683,"Ġmohamed":3684,"Ġmohammad":3685,"Ġivan":3686,"Ġdefensive":3687,"Ġfigure":3688,"ussein":3689,"Ġlangu":3690,"Ġanthony":3691,"Ġturned":3692,"Ġteacher":3693,"Ġlorenzo":3694,"Ġcleveland":3695,"Ġresting":3696,"Ġviktor":3697,"Ġmeckiff":3698,"Ġbachelor":3699,"Ġcritic":3700,"manageryears":3701,"david":3702,"Ġdrama":3703,"Ġglobal":3704,"Ġconservative":3705,"michael":3706,"Ġcolorado":3707,"william":3708,"Ġpsy":3709,"Ġdiego":3710,"Ġyugoslavia":3711,"Ġspartak":3712,"Ġsquad":3713,"Ġderek":3714,"Ġsofia":3715,"hagen":3716,"22":3717,"40":3718,"75":3719,"77":3720,"86":3721,"88":3722,"bin":3723,"based":3724,"dowell":3725,"ever":3726,"elec":3727,"ewan":3728,"gro":3729,"gest":3730,"hr":3731,"lan":3732,"lle":3733,"lio":3734,"mn":3735,"pool":3736,"sub":3737,"since":3738,"sburg":3739,"tent":3740,"uct":3741,"van":3742,"wart":3743,"wide":3744,"wyn":3745,"Ġuc":3746,"Ġell":3747,"Ġaik":3748,"Ġaaron":3749,"though":3750,"inals":3751,"anie":3752,"Ġsor":3753,"Ġsent":3754,"Ġsult":3755,"orary":3756,"Ġban":3757,"Ġbav":3758,"Ġbbc":3759,"tial":3760,"Ġcf":3761,"Ġcin":3762,"ente":3763,"enburg":3764,"Ġthose":3765,"Ġfel":3766,"Ġfac":3767,"Ġfall":3768,"Ġfly":3769,"Ġfant":3770,"Ġfaul":3771,"Ġpac":3772,"Ġmr":3773,"Ġmut":3774,"Ġmuch":3775,"Ġwhe":3776,"Ġward":3777,"Ġwild":3778,"Ġthese":3779,"Ġold":3780,"Ġhard":3781,"Ġhind":3782,"asy":3783,"Ġinf":3784,"amal":3785,"esa":3786,"icy":3787,"Ġtar":3788,"Ġjensen":3789,"Ġgary":3790,"eli":3791,"itney":3792,"char":3793,"Ġlane":3794,"Ġlands":3795,"Ġlives":3796,"Ġdeal":3797,"Ġkang":3798,"Ġrefer":3799,"Ġrang":3800,"oming":3801,"ulp":3802,"Ġalt":3803,"Ġemer":3804,"Ġeach":3805,"Ġeff":3806,"Ġchan":3807,"Ġchann":3808,"iana":3809,"Ġunit":3810,"Ġunknown":3811,"apore":3812,"Ġvide":3813,"ette":3814,"Ġsem":3815,"Ġles":3816,"athan":3817,"istry":3818,"raine":3819,"umann":3820,"Ġbeh":3821,"shi":3822,"Ġspring":3823,"Ġsplit":3824,"Ġcomedy":3825,"Ġcond":3826,"Ġcontemp":3827,"eyer":3828,"estyle":3829,"estnut":3830,"ovo":3831,"opp":3832,"avor":3833,"Ġfootsc":3834,"Ġmemor":3835,"ika":3836,"Ġsculp":3837,"Ġorthod":3838,"Ġpreced":3839,"Ġnoted":3840,"Ġheightin":3841,"Ġcurrentteam":3842,"Ġ80":3843,"Ġphill":3844,"Ġedmon":3845,"Ġsingapore":3846,"Ġ90":3847,"ashire":3848,"thew":3849,"enna":3850,"Ġtwice":3851,"Ġ1918":3852,"atchewan":3853,"Ġstefan":3854,"cover":3855,"Ġdraftround":3856,"spouse":3857,"Ġcharlie":3858,"Ġlost":3859,"Ġrights":3860,"Ġira":3861,"Ġiron":3862,"Ġirene":3863,"Ġ1901":3864,"Ġ1904":3865,"ological":3866,"2005":3867,"2009":3868,"Ġelections":3869,"Ġbush":3870,"Ġvictory":3871,"Ġ1867":3872,"Ġ1869":3873,"Ġlegal":3874,"Ġpitch":3875,"Ġconsort":3876,"Ġvaler":3877,"Ġfounding":3878,"itzer":3879,"Ġsignature":3880,"Ġdanish":3881,"Ġcamer":3882,"Ġcambridge":3883,"Ġguitarist":3884,"timore":3885,"Ġgoalt":3886,"Ġshows":3887,"Ġutah":3888,"Ġinfluential":3889,"Ġbaltimore":3890,"Ġtechnical":3891,"Ġparticular":3892,"Ġgave":3893,"ucky":3894,"Ġtradition":3895,"brough":3896,"Ġphysics":3897,"Ġgraduated":3898,"Ġhungarian":3899,"Ġfifth":3900,"Ġcontributions":3901,"Ġachievement":3902,"Ġcredited":3903,"Ġscreenwriter":3904,"Ġperformance":3905,"Ġpractice":3906,"Ġsweden":3907,"Ġsaskatchewan":3908,"Ġsergei":3909,"Ġmotor":3910,"Ġestonian":3911,"Ġcabinet":3912,"Ġgibson":3913,"Ġsaxoph":3914,"website":3915,"Ġmulti":3916,"Ġnelson":3917,"Ġlewis":3918,"Ġactivist":3919,"Ġmiddlesbrough":3920,"Ġlancashire":3921,"Ġfootscray":3922,"Ġorthodox":3923,"Ġedmonton":3924,"70":3925,"85":3926,"cen":3927,"cop":3928,"folk":3929,"gi":3930,"gas":3931,"gian":3932,"hel":3933,"hood":3934,"jian":3935,"ken":3936,"las":3937,"line":3938,"mb":3939,"oo":3940,"rad":3941,"sv":3942,"san":3943,"self":3944,"uart":3945,"vich":3946,"wau":3947,"xel":3948,"yi":3949,"zo":3950,"ziz":3951,"Ã«":3952,"à®":3953,"ĠØ":3954,"Ġid":3955,"Ġah":3956,"Ġahl":3957,"ink":3958,"iner":3959,"onist":3960,"Ġsin":3961,"Ġself":3962,"orter":3963,"orge":3964,"Ġblo":3965,"Ġbakh":3966,"tively":3967,"Ġci":3968,"ense":3969,"ensive":3970,"Ġthough":3971,"Ġfus":3972,"Ġfish":3973,"Ġface":3974,"Ġpil":3975,"Ġpur":3976,"Ġpra":3977,"Ġpos":3978,"Ġpick":3979,"Ġpistol":3980,"Ġpierre":3981,"Ġmick":3982,"Ġmah":3983,"Ġmlad":3984,"Ġwahls":3985,"Ġos":3986,"Ġhart":3987,"Ġhong":3988,"Ġ1900":3989,"Ġdam":3990,"Ġdann":3991,"Ġnation":3992,"Ġniz":3993,"astern":3994,"icine":3995,"edic":3996,"Ġtu":3997,"Ġton":3998,"Ġtas":3999,"Ġtam":4000,"Ġtat":4001,"Ġtay":4002,"tional":4003,"unsch":4004,"Ġgren":4005,"ush":4006,"itus":4007,"olin":4008,"ility":4009,"ental":4010,"Ġlam":4011,"Ġlut":4012,"Ġliver":4013,"Ġlike":4014,"berto":4015,"Ġkess":4016,"Ġkev":4017,"Ġref":4018,"heim":4019,"imoto":4020,"andr":4021,"tley":4022,"Ġstory":4023,"Ġstaff":4024,"Ġalencar":4025,"Ġalthough":4026,"Ġeye":4027,"Ġheath":4028,"idel":4029,"Ġonce":4030,"Ġva":4031,"Ġvanc":4032,"Ġvinc":4033,"Ġattemp":4034,"Ġleko":4035,"cture":4036,"merous":4037,"upper":4038,"rait":4039,"ument":4040,"osop":4041,"osito":4042,"Ġ39":4043,"Ġ05":4044,"george":4045,"occ":4046,"Ġnev":4047,"Ġnext":4048,"mann":4049,"oud":4050,"Ġspr":4051,"ovich":4052,"ending":4053,"avier":4054,"odi":4055,"odes":4056,"Ġmee":4057,"ipient":4058,"Ġjane":4059,"Ġ41":4060,"Ġ48":4061,"Ġboys":4062,"uction":4063,"ikha":4064,"Ġ1941":4065,"Ġrecently":4066,"Ġrecipient":4067,"antz":4068,"Ġhero":4069,"rene":4070,"Ġ70":4071,"Ġ76":4072,"Ġmanaged":4073,"ondo":4074,"Ġbrit":4075,"ldra":4076,"Ġcompu":4077,"Ġaustrian":4078,"Ġformerly":4079,"Ġbrothers":4080,"anne":4081,"Ġ1897":4082,"Ġ1912":4083,"Ġbarb":4084,"Ġcommander":4085,"Ġcommands":4086,"Ġgerald":4087,"Ã¡k":4088,"Ġmedicine":4089,"coach":4090,"weig":4091,"burial":4092,"Ġallow":4093,"Ġrunner":4094,"Ġdefence":4095,"Ġtrue":4096,"Ġsanford":4097,"Ġbecome":4098,"Ġbraunsch":4099,"Ġdoctor":4100,"Ġswitzer":4101,"Ġdiscover":4102,"Ġmilwau":4103,"Ġ1873":4104,"Ġbuild":4105,"Ġprior":4106,"Ġfreestyle":4107,"content":4108,"Ġsalvador":4109,"Ġphilosop":4110,"Ġmorris":4111,"Ġshooting":4112,"Ġlux":4113,"Ġluis":4114,"Ġredsk":4115,"Ġindiana":4116,"Ġrepresenting":4117,"Ġentrep":4118,"Ġarchite":4119,"ography":4120,"Ġlabor":4121,"Ġalleghen":4122,"Ġsharon":4123,"Ġangell":4124,"Ġjerry":4125,"Ġjapanese":4126,"Ġryu":4127,"Ġkenya":4128,"Ġkentucky":4129,"Ġdark":4130,"Ġstephen":4131,"Ġgraduate":4132,"Ġstarting":4133,"Ġtrophy":4134,"warz":4135,"Ġsavoy":4136,"Ġremained":4137,"Ġcommunity":4138,"ipline":4139,"Ġdiscipline":4140,"Ġhungary":4141,"Ġexperiment":4142,"Ġcroatia":4143,"Ġcroatian":4144,"Ġnikola":4145,"Ġgiants":4146,"Ġfinishing":4147,"Ġnominated":4148,"Ġestablished":4149,"Ġcitizenship":4150,"Ġheart":4151,"Ġelectronic":4152,"Ġnumerous":4153,"Ġstrikeouts":4154,"Ġeagles":4155,"Ġcould":4156,"Ġentertainment":4157,"Ġcandidate":4158,"Ġwidely":4159,"Ġindonesia":4160,"Ġdiplom":4161,"Ġsultan":4162,"Ġbavaria":4163,"Ġcontemporary":4164,"Ġkevin":4165,"Ġbraunschweig":4166,"Ġswitzerland":4167,"Ġmilwaukee":4168,"Ġredskins":4169,"Ġentreprene":4170,"Ġallegheny":4171,"59":4172,"74":4173,"78":4174,"awards":4175,"bon":4176,"bass":4177,"dar":4178,"dist":4179,"eo":4180,"ean":4181,"gc":4182,"ges":4183,"gary":4184,"gang":4185,"hab":4186,"iot":4187,"iens":4188,"jp":4189,"lu":4190,"lar":4191,"lia":4192,"los":4193,"lington":4194,"nat":4195,"nick":4196,"nell":4197,"pre":4198,"ridge":4199,"yu":4200,"Ã¯":4201,"ÅĦ":4202,"Ġé":4203,"Ġul":4204,"Ġess":4205,"Ġai":4206,"than":4207,"onso":4208,"Ġsun":4209,"Ġsad":4210,"Ġsul":4211,"Ġsang":4212,"Ġsinc":4213,"Ġstill":4214,"Ġbir":4215,"Ġcs":4216,"Ġcer":4217,"Ġcass":4218,"eni":4219,"enko":4220,"Ġfile":4221,"ali":4222,"Ġpate":4223,"Ġpian":4224,"Ġpap":4225,"Ġpay":4226,"Ġpav":4227,"Ġpuer":4228,"Ġmir":4229,"Ġmix":4230,"Ġmeyer":4231,"Ġop":4232,"Ġhamp":4233,"Ġhaj":4234,"Ġhank":4235,"Ġhuss":4236,"rez":4237,"Ġdj":4238,"Ġdro":4239,"Ġdat":4240,"Ġdays":4241,"Ġnag":4242,"Ġnord":4243,"Ġinst":4244,"Ġanc":4245,"lair":4246,"laim":4247,"Ġtan":4248,"Ġtamil":4249,"Ġanderson":4250,"Ġjes":4251,"una":4252,"cep":4253,"used":4254,"illed":4255,"urity":4256,"atar":4257,"Ġlord":4258,"Ġlip":4259,"Ġlok":4260,"Ġliti":4261,"Ġlions":4262,"Ġdeb":4263,"Ġdead":4264,"Ġklaus":4265,"Ġrepla":4266,"Ġariz":4267,"Ġarmen":4268,"Ġrick":4269,"Ġfort":4270,"omo":4271,"ande":4272,"Ġyan":4273,"Ġalder":4274,"Ġeis":4275,"Ġeug":4276,"Ġchess":4277,"Ġchestnut":4278,"versi":4279,"iane":4280,"otto":4281,"ido":4282,"igham":4283,"Ġvie":4284,"eta":4285,"etown":4286,"ardo":4287,"uglas":4288,"Ġros":4289,"Ġfoo":4290,"Ġfoster":4291,"Ġfocus":4292,"Ġ01":4293,"Ġ04":4294,"Ġneigh":4295,"Ġwithout":4296,"ouver":4297,"ainer":4298,"ional":4299,"Ġjoyce":4300,"Ġshir":4301,"endall":4302,"endra":4303,"open":4304,"ranco":4305,"ebacker":4306,"Ġ42":4307,"iven":4308,"ival":4309,"Ġ51":4310,"emin":4311,"embourg":4312,"antry":4313,"assa":4314,"Ã©tico":4315,"Ġmanuel":4316,"Ġtied":4317,"iza":4318,"Ġbruce":4319,"Ġbrigham":4320,"Ġparker":4321,"Ġpho":4322,"Ġcompan":4323,"ques":4324,"Ġrecordings":4325,"Ġfinanc":4326,"Ġappe":4327,"enny":4328,"Ġ1898":4329,"Ġ1914":4330,"Ġnorway":4331,"Ġwars":4332,"Ġoffensive":4333,"birthname":4334,"count":4335,"ysis":4336,"Ġsecurity":4337,"Ġabb":4338,"tingham":4339,"caption":4340,"Ġclinton":4341,"onski":4342,"Ġnottingham":4343,"Ġappearance":4344,"Ġamong":4345,"Ġstarred":4346,"Ġhimself":4347,"Ġrules":4348,"Ġanna":4349,"Ġpublish":4350,"Ġsyrac":4351,"evich":4352,"Ġ1870":4353,"alymp":4354,"Ġhistor":4355,"Ġtitles":4356,"Ġupon":4357,"Ġperforming":4358,"Ġshoo":4359,"Ġarea":4360,"Ġclaim":4361,"Ġmatthew":4362,"Ġtestdebut":4363,"ĠÃĸ":4364,"Ġmiller":4365,"Ġarchbishop":4366,"ĠatlÃ©tico":4367,"Ġplaceof":4368,"ribed":4369,"Ġaccomp":4370,"Ġmake":4371,"Ġrelations":4372,"uddin":4373,"Ġscoring":4374,"Ġathletics":4375,"Ġsaints":4376,"Ġpoetry":4377,"Ġspeed":4378,"Ġduncan":4379,"Ġreview":4380,"Ġnatural":4381,"Ġpetro":4382,"Ġphotographer":4383,"ompson":4384,"Ġvienna":4385,"Ġprojects":4386,"Ġdoubles":4387,"Ġstatistics":4388,"Ġcyclist":4389,"Ġlinebacker":4390,"Ġattacking":4391,"Ġliberal":4392,"Ġliterary":4393,"Ġparticipated":4394,"Ġbanglad":4395,"Ġreached":4396,"ovakia":4397,"Ġbaronet":4398,"Ġfalcons":4399,"Ġludwig":4400,"Ġquarterback":4401,"Ġanalysis":4402,"Ġbruno":4403,"ablonski":4404,"Ġgoaltender":4405,"helm":4406,"Ġpilot":4407,"Ġliverpool":4408,"Ġvancouver":4409,"Ġluxembourg":4410,"Ġentrepreneur":4411,"Ġsinclair":4412,"Ġpatel":4413,"Ġpianist":4414,"Ġpuerto":4415,"Ġlitigation":4416,"Ġarizona":4417,"Ġsyracuse":4418,"Ġplaceofburial":4419,"..":4420,"44":4421,"72":4422,"cr":4423,"cat":4424,"cast":4425,"cial":4426,"dan":4427,"gh":4428,"gu":4429,"gra":4430,"how":4431,"hran":4432,"jam":4433,"jana":4434,"kner":4435,"lic":4436,"np":4437,"nam":4438,"nelly":4439,"oeller":4440,"pr":4441,"part":4442,"paul":4443,"uan":4444,"vo":4445,"vine":4446,"won":4447,"ways":4448,"ying":4449,"yagi":4450,"Ã¦":4451,"áĢ":4452,"Ġia":4453,"Ġump":4454,"Ġigor":4455,"thomas":4456,"inch":4457,"inian":4458,"intern":4459,"onjÃ©":4460,"anotti":4461,"Ġsed":4462,"Ġbot":4463,"Ġbhar":4464,"Ġbeargarden":4465,"arily":4466,"Ġcad":4467,"Ġcast":4468,"Ġcinc":4469,"Ġcult":4470,"enin":4471,"enham":4472,"Ġthompson":4473,"Ġfle":4474,"Ġfur":4475,"Ġfri":4476,"Ġfailed":4477,"albert":4478,"Ġpun":4479,"Ġpace":4480,"Ġpiano":4481,"Ġwit":4482,"Ġwak":4483,"Ġwinn":4484,"Ġwinger":4485,"ising":4486,"Ġhom":4487,"Ġhab":4488,"Ġhang":4489,"Ġ...":4490,"Ġdall":4491,"Ġny":4492,"Ġnight":4493,"Ġnai":4494,"Ġnova":4495,"asi":4496,"Ġinves":4497,"icz":4498,"iche":4499,"icap":4500,"rock":4501,"royer":4502,"Ġtupper":4503,"Ġjess":4504,"Ġgi":4505,"Ġgun":4506,"Ġgay":4507,"Ġgree":4508,"Ġgiven":4509,"eler":4510,"ately":4511,"chik":4512,"olan":4513,"ilian":4514,"uru":4515,"urer":4516,"urin":4517,"Ġluk":4518,"Ġlisa":4519,"Ġkid":4520,"Ġkong":4521,"Ġkhan":4522,"Ġkuba":4523,"Ġarn":4524,"Ġarag":4525,"Ġarafat":4526,"tician":4527,"Ġrid":4528,"Ġrio":4529,"Ġrene":4530,"Ġrider":4531,"adier":4532,"adesh":4533,"aging":4534,"Ġtok":4535,"earce":4536,"Ġstories":4537,"Ġstuart":4538,"Ġec":4539,"Ġegy":4540,"Ġchi":4541,"idi":4542,"iak":4543,"Ġvlad":4544,"ayer":4545,"utor":4546,"ardar":4547,"ighton":4548,"Ġrod":4549,"Ġrom":4550,"Ġrome":4551,"Ġroll":4552,"Ġroyer":4553,"Ġ34":4554,"Ġ37":4555,"Ġcopen":4556,"Ġtel":4557,"Ġtemp":4558,"Ġbeg":4559,"Ġbeach":4560,"icant":4561,"udley":4562,"Ġspira":4563,"aking":4564,"aksh":4565,"Ġcomic":4566,"ificant":4567,"Ġnewsp":4568,"Ġshary":4569,"Ġshah":4570,"opher":4571,"rano":4572,"abri":4573,"Ġ61":4574,"Ġ64":4575,"Ġ43":4576,"Ġ53":4577,"elling":4578,"Ġscore":4579,"antum":4580,"assan":4581,"ughlin":4582,"Ġparts":4583,"Ġmanila":4584,"izon":4585,"Ġparents":4586,"Ġparalymp":4587,"Ġschwarz":4588,"season":4589,"Ġprison":4590,"Ġpradesh":4591,"Ġeddie":4592,"Ġ175":4593,"Ġministry":4594,"aheli":4595,"Ġgener":4596,"Ġaustin":4597,"instein":4598,"Ġused":4599,"Ġnorfolk":4600,"Ġ140":4601,"Ġpoint":4602,"Ġcanadiens":4603,"Ġwillie":4604,"Ġstats":4605,"Ġbrief":4606,"Ġlove":4607,"ĠcronjÃ©":4608,"neider":4609,"Ġharold":4610,"Ġsound":4611,"Ġ230":4612,"Ġ1902":4613,"Ġlawrence":4614,"Ġtrin":4615,"Ġpositions":4616,"Ġblond":4617,"Ġbutler":4618,"Ġproduct":4619,"Ġmoney":4620,"innati":4621,"Ġgreen":4622,"llig":4623,"2004":4624,"Ġqualif":4625,"Ġquantum":4626,"Ġaleks":4627,"nationalcaps":4628,"Ġmilan":4629,"eva":4630,"olour":4631,"Ġlouise":4632,"Ġlouisiana":4633,"Ġ1880":4634,"Ġbowler":4635,"Ġfew":4636,"onym":4637,"Ġperformed":4638,"Ġmaur":4639,"Ġinvited":4640,"Ġinterest":4641,"Ġprimemin":4642,"Ġmatt":4643,"ĠmartÃŃ":4644,"Ġtests":4645,"founder":4646,"Ġgolden":4647,"Ġindianapolis":4648,"Ġrepresentative":4649,"Ġavignon":4650,"Ġvocalist":4651,"Ġera":4652,"Ġemir":4653,"Ġkarl":4654,"pped":4655,"Ġmagn":4656,"Ġrichmond":4657,"Ġsurv":4658,"Ġjournal":4659,"Ġacclaim":4660,"Ġemplo":4661,"Ġmadrid":4662,"Ġsubse":4663,"Ġasian":4664,"Ġdevine":4665,"Ġtraded":4666,"hoon":4667,"Ġqatar":4668,"eshire":4669,"Ġisraeli":4670,"steph":4671,"Ġballs":4672,"Ġmexico":4673,"borough":4674,"Ġwilhelm":4675,"Ġbradford":4676,"Ġabdul":4677,"Ġcardinals":4678,"Ġeconomic":4679,"Ġeconomics":4680,"ĠandrÃ©":4681,"Ġvelshi":4682,"Ġinnings":4683,"Ġdominican":4684,"Ġargentina":4685,"Ġfeatured":4686,"Ġniger":4687,"Ġtackle":4688,"Ġprosec":4689,"Ġprovided":4690,"Ġdifranco":4691,"Ġkiram":4692,"Ġimportant":4693,"Ġatlantic":4694,"Ġnovelist":4695,"ÅĤaw":4696,"Ġpadilla":4697,"endorf":4698,"Ġintellig":4699,"Ġlebanon":4700,"Ġprominent":4701,"Ġconcert":4702,"Ġfaulkner":4703,"Ġpacific":4704,"Ġlandsberg":4705,"Ġrangers":4706,"Ġpreceded":4707,"Ġdanny":4708,"Ġcomputer":4709,"Ġbarbara":4710,"Ġphilosophy":4711,"Ġexperimental":4712,"Ġdiplomat":4713,"gcolour":4714,"Ġhampshire":4715,"Ġarmenian":4716,"Ġfinancial":4717,"Ġshooter":4718,"international":4719,"Ġcincinnati":4720,"Ġdallas":4721,"Ġcopenhagen":4722,"Ġnewspap":4723,"Ġprimeminister":4724,"03":4725,"68":4726,"aug":4727,"aaron":4728,"bet":4729,"bgcolour":4730,"cb":4731,"cz":4732,"cted":4733,"cricinfo":4734,"du":4735,"ela":4736,"fa":4737,"gus":4738,"hou":4739,"iors":4740,"jer":4741,"jun":4742,"kar":4743,"kal":4744,"light":4745,"lana":4746,"mid":4747,"mary":4748,"nor":4749,"nel":4750,"nap":4751,"nish":4752,"pan":4753,"pur":4754,"poin":4755,"qi":4756,"ruction":4757,"tv":4758,"ued":4759,"uard":4760,"winning":4761,"wicz":4762,"Ã¨":4763,"Ã±":4764,"Ã¸":4765,"Äģ":4766,"ÄĻ":4767,"Ð½":4768,"Ġaxel":4769,"inth":4770,"inburgh":4771,"Ġsol":4772,"Ġsap":4773,"Ġsick":4774,"Ġsab":4775,"Ġsaf":4776,"Ġsons":4777,"Ġsanta":4778,"orated":4779,"Ġbom":4780,"Ġbid":4781,"Ġbai":4782,"Ġbody":4783,"tie":4784,"ars":4785,"arca":4786,"Ġcur":4787,"Ġculture":4788,"enai":4789,"Ġthur":4790,"Ġfurn":4791,"Ġpic":4792,"Ġpakh":4793,"Ġpunk":4794,"lef":4795,"leans":4796,"Ġmcc":4797,"Ġmale":4798,"Ġmlb":4799,"Ġwa":4800,"Ġwater":4801,"tess":4802,"Ġhun":4803,"Ġhus":4804,"Ġhot":4805,"Ġhann":4806,"Ġhussein":4807,"Ġdoc":4808,"Ġdue":4809,"Ġdutch":4810,"Ġdnp":4811,"Ġdudley":4812,"Ġna":4813,"Ġnations":4814,"asu":4815,"asthan":4816,"Ġinj":4817,"Ġiniti":4818,"amma":4819,"Ġanti":4820,"Ġanim":4821,"Ġanton":4822,"esp":4823,"Ġtus":4824,"Ġtong":4825,"Ġtang":4826,"Ġtenn":4827,"Ġtrum":4828,"ingu":4829,"Ġjam":4830,"unce":4831,"Ġgas":4832,"ĠgÃ¶":4833,"Ġgosp":4834,"chy":4835,"Ġlind":4836,"iguel":4837,"Ġkame":4838,"Ġkilled":4839,"Ġkainer":4840,"Ġreign":4841,"Ġrebane":4842,"Ġarab":4843,"hem":4844,"stan":4845,"Ġrim":4846,"Ġrud":4847,"Ġrif":4848,"Ġrania":4849,"Ġrais":4850,"Ġtouring":4851,"sible":4852,"ando":4853,"andy":4854,"Ġstation":4855,"Ġyou":4856,"uli":4857,"ulzer":4858,"places":4859,"player":4860,"Ġeastern":4861,"vey":4862,"otte":4863,"Ġuncle":4864,"idad":4865,"idence":4866,"Ġvfl":4867,"eting":4868,"utt":4869,"Ġwhose":4870,"rial":4871,"ribut":4872,"Ġplayoff":4873,"Ġroger":4874,"Ġborneo":4875,"Ġcoo":4876,"Ġcous":4877,"ressive":4878,"Ġmarri":4879,"Ġmarie":4880,"Ġmarcel":4881,"Ġmartial":4882,"Ġwithin":4883,"aine":4884,"ordin":4885,"Ġcomed":4886,"ift":4887,"oviÄĩ":4888,"ovanna":4889,"Ġshim":4890,"icki":4891,"avan":4892,"Ġmechan":4893,"Ġboyd":4894,"Ġ500":4895,"Ġscene":4896,"Ġmob":4897,"Ġorleans":4898,"Ġpolicy":4899,"sons":4900,"Ġhern":4901,"Ã©ri":4902,"angel":4903,"Ġindo":4904,"Ġpartner":4905,"Ġtill":4906,"Ġtiger":4907,"Ġ1921":4908,"Ġparagu":4909,"Ġ84":4910,"Ġagency":4911,"Ġedinburgh":4912,"forming":4913,"Ġ92":4914,"Ġserves":4915,"Ġsuff":4916,"Ġib":4917,"Ġyorkshire":4918,"Ġfinnish":4919,"ricia":4920,"Ġperry":4921,"ressed":4922,"Ġcalgary":4923,"kewicz":4924,"Ġ139":4925,"Ġ1892":4926,"Ġevans":4927,"Ġbands":4928,"Ġcharl":4929,"Ġschools":4930,"awa":4931,"Ġ1903":4932,"Ġ1905":4933,"Ġlawyers":4934,"Ġcoached":4935,"bru":4936,"Ġclar":4937,"Ġbecoming":4938,"Ġgrey":4939,"Ġhighly":4940,"2003":4941,"Ġdoctoral":4942,"Ġyour":4943,"Ġregard":4944,"Ġannoun":4945,"Ġoriginally":4946,"Ġauthority":4947,"Ġsenators":4948,"Ġdisp":4949,"Ġsyrian":4950,"Ġthrowing":4951,"Ġ1878":4952,"Ġstudio":4953,"Ġalexand":4954,"Ġmets":4955,"Ġmetre":4956,"Ġmetro":4957,"Ġreceiving":4958,"talion":4959,"Ġacademic":4960,"Ġsimon":4961,"Ġdenver":4962,"Ġxi":4963,"Ġinvest":4964,"Ġprimarily":4965,"Ġdelhi":4966,"Ġportrait":4967,"Ġuttar":4968,"Ġnovels":4969,"Ġdrug":4970,"Ġelectoral":4971,"Ġlosing":4972,"Ġversion":4973,"2013":4974,"Ġmasters":4975,"Ġdaughters":4976,"Ġ1835":4977,"ijs":4978,"Ġfederation":4979,"Ġindependence":4980,"Ġgrieg":4981,"Ġservices":4982,"Ġolive":4983,"Ġalberta":4984,"Ġduke":4985,"Ġpakistani":4986,"Ġturkish":4987,"Ġsystems":4988,"Ġwilson":4989,"chiat":4990,"Ġviolin":4991,"Ġdriver":4992,"Ġtype":4993,"drig":4994,"Ġmcginn":4995,"Ġwriting":4996,"Ġdouble":4997,"Ġbanks":4998,"Ġrecognized":4999,"Ġmunich":5000,"Ġgymn":5001,"Ġadvoc":5002,"Ġdescent":5003,"Äĥu":5004,"Ġdoroth":5005,"Ġearlier":5006,"while":5007,"Ġhodge":5008,"Ġsimpson":5009,"Ġbilly":5010,"Ġpirates":5011,"ĠnÃ©e":5012,"Ġboland":5013,"vetlana":5014,"Ġcontroversi":5015,"Ġesposito":5016,"Ġseattle":5017,"master":5018,"through":5019,"Ġhospital":5020,"Ġnetwork":5021,"Ġcommercial":5022,"Ġjohann":5023,"Ġpsychiat":5024,"Ġcinema":5025,"Ġflying":5026,"Ġwilde":5027,"Ġreferred":5028,"Ġchannel":5029,"Ġbehind":5030,"Ġcameron":5031,"cenera":5032,"svg":5033,"Ġahmed":5034,"Ġhartford":5035,"Ġtaylor":5036,"occupation":5037,"Ġbritain":5038,"ldrafted":5039,"Ġallowed":5040,"Ġhussain":5041,"Ġeisner":5042,"Ġwarsaw":5043,"jamin":5044,"Ġfriend":5045,"Ġinvestig":5046,"points":5047,"Ġgospel":5048,"Ġparaguay":5049,"Ġdorothy":5050,"'t":5051,"07":5052,"28":5053,"73":5054,"ause":5055,"auman":5056,"aoka":5057,"bre":5058,"bus":5059,"bot":5060,"bie":5061,"bak":5062,"bors":5063,"cs":5064,"cy":5065,"cious":5066,"cross":5067,"cats":5068,"dle":5069,"fic":5070,"get":5071,"hap":5072,"hop":5073,"hael":5074,"hib":5075,"iad":5076,"ked":5077,"kat":5078,"lon":5079,"lory":5080,"loss":5081,"lenburg":5082,"mpla":5083,"mouth":5084,"mowski":5085,"nan":5086,"not":5087,"net":5088,"oe":5089,"ois":5090,"oum":5091,"pond":5092,"ras":5093,"sin":5094,"sis":5095,"sir":5096,"sing":5097,"sey":5098,"ux":5099,"uen":5100,"ution":5101,"uiz":5102,"utes":5103,"uoka":5104,"viÄĩ":5105,"xter":5106,"yes":5107,"zes":5108,"zio":5109,"zny":5110,"ÅŁ":5111,"Ð°":5112,"Ġ_":5113,"Ġå":5114,"Ġè":5115,"Ġide":5116,"Ġauck":5117,"erre":5118,"ered":5119,"tham":5120,"inÄĥu":5121,"ants":5122,"Ġsr":5123,"Ġsel":5124,"Ġsit":5125,"Ġsand":5126,"ĠsÃ©":5127,"Ġsusse":5128,"Ġsotto":5129,"oria":5130,"Ġbears":5131,"Ġburn":5132,"Ġbint":5133,"ared":5134,"Ġcu":5135,"Ġcate":5136,"Ġcfl":5137,"Ġcricinfo":5138,"Ġcbs":5139,"ĠcÃ´":5140,"entist":5141,"enix":5142,"Ġfire":5143,"Ġfast":5144,"Ġfash":5145,"Ġfitz":5146,"Ġfavor":5147,"alf":5148,"Ġpon":5149,"Ġput":5150,"Ġpage":5151,"Ġpears":5152,"Ġpresented":5153,"Ġpga":5154,"lee":5155,"lett":5156,"Ġmp":5157,"Ġmack":5158,"Ġmimi":5159,"Ġmiguel":5160,"Ġthesis":5161,"isk":5162,"isÅĤaw":5163,"rban":5164,"Ġoil":5165,"Ġhan":5166,"Ġhaz":5167,"Ġhiro":5168,"Ġhunt":5169,"reb":5170,"Ġdin":5171,"Ġdone":5172,"Ġni":5173,"Ġnim":5174,"Ġnav":5175,"Ġnba":5176,"Ġins":5177,"Ġany":5178,"law":5179,"eds":5180,"eder":5181,"rob":5182,"room":5183,"rousse":5184,"Ġji":5185,"Ġjenn":5186,"Ġjasper":5187,"Ġgon":5188,"Ġget":5189,"Ġgolf":5190,"atest":5191,"ushing":5192,"chair":5193,"oli":5194,"urse":5195,"Ġlank":5196,"Ġkon":5197,"Ġkam":5198,"Ġkate":5199,"Ġkum":5200,"Ġkaz":5201,"Ġkee":5202,"Ġread":5203,"Ġarm":5204,"stal":5205,"standing":5206,"Ġrub":5207,"Ġrice":5208,"Ġrfc":5209,"adi":5210,"ades":5211,"advis":5212,"Ġtouch":5213,"sip":5214,"imana":5215,"terbury":5216,"andon":5217,"andler":5218,"Ġstak":5219,"Ġstran":5220,"Ġalan":5221,"players":5222,"Ġcho":5223,"Ġchern":5224,"eto":5225,"etti":5226,"Ġplat":5227,"Ġsex":5228,"Ġlev":5229,"ugg":5230,"Ġrosa":5231,"Ġrochester":5232,"Ġrodrig":5233,"Ġ300":5234,"Ġprost":5235,"Ġproper":5236,"Ġ02":5237,"respond":5238,"Ġtesti":5239,"ocese":5240,"Ġbeat":5241,"Ġnether":5242,"uez":5243,"Ġmarket":5244,"Ġspin":5245,"Ġlabour":5246,"akash":5247,"eyimana":5248,"icheng":5249,"Ġjoin":5250,"icker":5251,"endenin":5252,"ops":5253,"Ġcolin":5254,"Ġcapital":5255,"alse":5256,"rystal":5257,"abase":5258,"verse":5259,"ipal":5260,"Ġjanet":5261,"acht":5262,"Ġ65":5263,"Ġ66":5264,"Ġ44":5265,"Ġmayassa":5266,"iki":5267,"Ġuniversit":5268,"Ġhassan":5269,"emy":5270,"Ġrecent":5271,"Ġjulian":5272,"Ġherbert":5273,"Ġ77":5274,"sidy":5275,"Ġcounties":5276,"Ġcountess":5277,"pero":5278,"pernick":5279,"Ġschauman":5280,"eree":5281,"Ġ87":5282,"Ġcancer":5283,"Ġcanterbury":5284,"Ġpray":5285,"Ġ155":5286,"Ġ1500":5287,"Ġfilip":5288,"Ġzanotti":5289,"Ġjohnny":5290,"Ġshepp":5291,"Ġsheila":5292,"ampton":5293,"Ġprofessionally":5294,"Ġbattalion":5295,"adeem":5296,"Ġexhib":5297,"ublin":5298,"Ġacross":5299,"Ġcountries":5300,"Ġgeoff":5301,"Ġmedals":5302,"cois":5303,"Ġ240":5304,"Ġpoor":5305,"Ġ220":5306,"spir":5307,"atified":5308,"ungan":5309,"Ġabol":5310,"Ġabram":5311,"nez":5312,"Ġelder":5313,"Ġhadfield":5314,"awks":5315,"Ġ1907":5316,"ancy":5317,"Ġcoaching":5318,"brid":5319,"Ġmonarch":5320,"Ġbests":5321,"Ġgreatest":5322,"2006":5323,"2007":5324,"Ġdirected":5325,"Ġambass":5326,"Ġcontribut":5327,"Ġquizon":5328,"Ġdave":5329,"Ġannie":5330,"Ġswim":5331,"Ġflames":5332,"Ġwalter":5333,"Ġwalker":5334,"Ġvictim":5335,"Ġscientist":5336,"cester":5337,"Ġsyn":5338,"Ġsyria":5339,"Ġreligious":5340,"Ġ1865":5341,"Ġ1868":5342,"Ġmcne":5343,"Ġ1881":5344,"Ġpriv":5345,"Ġscott":5346,"constituency":5347,"Ġsongs":5348,"Ġmorrison":5349,"Ġranked":5350,"Ġnflnew":5351,"Ġmartins":5352,"Ġwoman":5353,"foot":5354,"Ġcreative":5355,"ĠÃĹ":5356,"Ġmills":5357,"Ġentry":5358,"Ġava":5359,"Ġeric":5360,"Ġholy":5361,"Ġholly":5362,"Ġholder":5363,"Ġdonnelly":5364,"Ġmurphy":5365,"caa":5366,"Ġfollowed":5367,"Ġmaryland":5368,"Ġrelatives":5369,"Ġtotalcaps":5370,"Ġtotalgoals":5371,"ieta":5372,"ulaziz":5373,"Ġsharif":5374,"2011":5375,"2014":5376,"Ġopening":5377,"1998":5378,"Ġlarry":5379,"Ġmohammed":5380,"Ġpastor":5381,"Ġtake":5382,"Ġboris":5383,"brown":5384,"carlos":5385,"Ġrapids":5386,"Ġkentridge":5387,"Ġclassical":5388,"yeon":5389,"Ġveenai":5390,"Ġstephanie":5391,"Ġntl":5392,"Ġballard":5393,"Ġraymond":5394,"Ġindustrial":5395,"Ġcommunic":5396,"Ġentered":5397,"hua":5398,"Ġstrong":5399,"Ġ1843":5400,"Ġfergus":5401,"Ġgirl":5402,"Ġadministr":5403,"Ġstockport":5404,"Ġmcglory":5405,"Ġpaik":5406,"Ġhogan":5407,"Ġrajasthan":5408,"Ġvisiting":5409,"Ġsheriff":5410,"Ġstatistical":5411,"Ġhayden":5412,"Ġlatter":5413,"Ġmikec":5414,"Ġgilbert":5415,"Ġrandy":5416,"Ġrandall":5417,"Ġzimmer":5418,"Ġdescribed":5419,"Ġliterature":5420,"khage":5421,"Ġastros":5422,"Ġalgerian":5423,"Ġalgeria":5424,"teenth":5425,"Ġwelsh":5426,"Ġdickerson":5427,"ographic":5428,"Ġmonths":5429,"Ġkeyboard":5430,"Ġmessner":5431,"Ġdolcenera":5432,"Ġadvisory":5433,"Ġbroadcast":5434,"Ġmalaysia":5435,"Ð¸Ñ":5436,"Ġfuture":5437,"Ġfront":5438,"Ġcolonel":5439,"Ġzagreb":5440,"Ġcorporation":5441,"Ġlanguage":5442,"election":5443,"Ġvideo":5444,"Ġvalerie":5445,"Ġsaxophonist":5446,"Ġsinicki":5447,"Ġnizeyimana":5448,"Ġarchitect":5449,"district":5450,"Ġdatabase":5451,"Ġnagy":5452,"Ġlokomo":5453,"Ġphoenix":5454,"Ġcompanies":5455,"Ġbangladesh":5456,"however":5457,"Ġfurther":5458,"Ġvladim":5459,"Ġtrinidad":5460,"ĠmartÃŃnez":5461,"Ġintelligence":5462,"Ġnewspaper":5463,"kalu":5464,"Ġbombers":5465,"Ġraised":5466,"Ġcontroversial":5467,"Ġauckland":5468,"Ġsussex":5469,"Ġfashion":5470,"Ġpearson":5471,"Ġnetherlands":5472,"ichengreen":5473,"Ġambassador":5474,"Ġlokomotiv":5475,"06":5476,"09":5477,"15":5478,"27":5479,"43":5480,"47":5481,"63":5482,"64":5483,"81":5484,"84":5485,"92":5486,"93":5487,"ail":5488,"bham":5489,"cm":5490,"cal":5491,"cio":5492,"di":5493,"din":5494,"down":5495,"fil":5496,"furt":5497,"follow":5498,"gow":5499,"ggy":5500,"hon":5501,"ially":5502,"jess":5503,"kis":5504,"kim":5505,"lif":5506,"lang":5507,"lovakia":5508,"non":5509,"now":5510,"oon":5511,"pl":5512,"pec":5513,"rn":5514,"rÃ©":5515,"sal":5516,"sop":5517,"tÃ©":5518,"uy":5519,"vre":5520,"vir":5521,"witz":5522,"when":5523,"yr":5524,"zÃ¡":5525,"zzi":5526,"Æ¡":5527,"Ð²":5528,"ÙĨ":5529,"å®":5530,"Ġig":5531,"Ġian":5532,"Ġum":5533,"ĠáĢ":5534,"Ġaround":5535,"ermo":5536,"thm":5537,"thy":5538,"thing":5539,"thman":5540,"anied":5541,"Ġsac":5542,"Ġsardar":5543,"Ġsvetlana":5544,"Ġbc":5545,"Ġbh":5546,"Ġbes":5547,"Ġbed":5548,"Ġbap":5549,"Ġbenn":5550,"Ġbati":5551,"Ġbolog":5552,"Ġbates":5553,"Ġbolk":5554,"Ġbranch":5555,"Ġbjp":5556,"tia":5557,"tian":5558,"tire":5559,"Ġcub":5560,"Ġcart":5561,"Ġcamp":5562,"Ġcushing":5563,"Ġthong":5564,"Ġfan":5565,"Ġfielder":5566,"Ġfrick":5567,"Ġfact":5568,"Ġpf":5569,"Ġpere":5570,"Ġposs":5571,"Ġpearce":5572,"Ġmam":5573,"Ġmiam":5574,"ĠmÃ¼":5575,"Ġwer":5576,"Ġwri":5577,"Ġwander":5578,"Ġwright":5579,"tech":5580,"tels":5581,"templa":5582,"Ġtheater":5583,"Ġhi":5584,"Ġhum":5585,"Ġhild":5586,"Ġhutch":5587,"ream":5588,"rela":5589,"rement":5590,"Ġdur":5591,"Ġdub":5592,"Ġdest":5593,"Ġdahl":5594,"Ġdmowski":5595,"Ġnich":5596,"Ġnash":5597,"Ġnune":5598,"Ġnasa":5599,"Ġncaa":5600,"asgow":5601,"Ġinaug":5602,"lap":5603,"lay":5604,"later":5605,"edom":5606,"rod":5607,"rote":5608,"Ġtol":5609,"Ġtul":5610,"Ġtampa":5611,"Ġjason":5612,"Ġjockey":5613,"Ġgor":5614,"Ġgod":5615,"ĠgÃ³":5616,"Ġgained":5617,"ella":5618,"eland":5619,"itt":5620,"itation":5621,"chin":5622,"chest":5623,"olution":5624,"iling":5625,"illet":5626,"Ġlith":5627,"Ġloc":5628,"Ġlion":5629,"Ġlisted":5630,"Ġliving":5631,"Ġkay":5632,"Ġkut":5633,"Ġkos":5634,"Ġkuk":5635,"Ġkurt":5636,"Ġkinsk":5637,"Ġarres":5638,"Ġarmit":5639,"Ġarrest":5640,"stad":5641,"Ġrw":5642,"Ġrav":5643,"Ġrena":5644,"adjian":5645,"agues":5646,"Ġtoge":5647,"Ġtoday":5648,"sie":5649,"sian":5650,"imb":5651,"Ġstone":5652,"Ġyu":5653,"Ġyong":5654,"ulu":5655,"Ġalord":5656,"Ġequ":5657,"Ġeichengreen":5658,"ĠchÃ©ri":5659,"aci":5660,"acon":5661,"Ġunsu":5662,"idu":5663,"iden":5664,"Ġvari":5665,"ubles":5666,"Ġleon":5667,"Ġleav":5668,"Ġleone":5669,"cting":5670,"Ġwhom":5671,"ups":5672,"uge":5673,"umed":5674,"Ġrovers":5675,"osed":5676,"oslovakia":5677,"Ġprol":5678,"Ġprobab":5679,"resh":5680,"ustino":5681,"Ġbeij":5682,"Ġmargar":5683,"shaw":5684,"essful":5685,"ccessful":5686,"Ġlaura":5687,"Ġcoming":5688,"Ġconran":5689,"ills":5690,"Ġjohan":5691,"Ġjoining":5692,"Ġjoanna":5693,"Ġjosip":5694,"oven":5695,"Ġshap":5696,"Ġshav":5697,"ranking":5698,"Ġcolts":5699,"ouski":5700,"Ġcape":5701,"Ġcapit":5702,"odina":5703,"abi":5704,"abrat":5705,"ips":5706,"achi":5707,"Ġ63":5708,"Ġ649":5709,"Ġ47":5710,"Ġmaya":5711,"iviane":5712,"unds":5713,"unded":5714,"eme":5715,"Ġens":5716,"okes":5717,"Ġjuniors":5718,"asty":5719,"antin":5720,"asser":5721,"associ":5722,"Ġ73":5723,"ughan":5724,"Ġindie":5725,"ioz":5726,"ullo":5727,"Ġparma":5728,"Ġschneider":5729,"Ġschulzer":5730,"Ġ83":5731,"Ġterry":5732,"Ġterrit":5733,"Ġcanon":5734,"essions":5735,"Ġminer":5736,"Ġreporter":5737,"Ġservant":5738,"Ġgeneva":5739,"Ġwortley":5740,"Ġshep":5741,"193":5742,"Ġweinstein":5743,"Ġappro":5744,"Ġexten":5745,"enne":5746,"Ġperu":5747,"Ġperth":5748,"Ġworldwide":5749,"Ġbrock":5750,"tures":5751,"Ġaction":5752,"Ġuse":5753,"Ġ1891":5754,"Ġnorcross":5755,"Ġbarn":5756,"Ã¡s":5757,"Ġsteel":5758,"encer":5759,"encia":5760,"marsh":5761,"Ġevidence":5762,"Ġevangel":5763,"atern":5764,"Ġwillard":5765,"Ġsection":5766,"Ġabst":5767,"Ġirvine":5768,"Ġellef":5769,"Ġsuccession":5770,"Ġsox":5771,"Ġ1906":5772,"Ġkingston":5773,"ault":5774,"myth":5775,"Ġbecause":5776,"Ġbrakhage":5777,"Ġgrew":5778,"Ġdistingu":5779,"2001":5780,"Ġmission":5781,"Ġhaas":5782,"alex":5783,"Ġdoha":5784,"Ġyoon":5785,"icketarchive":5786,"venue":5787,"Ġlastodi":5788,"ible":5789,"Ġdavidson":5790,"Ġswane":5791,"enderson":5792,"Ġwalwyn":5793,"Ġdiss":5794,"Ġsciences":5795,"Ġreser":5796,"Ġresigned":5797,"Ġretirement":5798,"def":5799,"Ġdirectors":5800,"ableworks":5801,"Ġ1864":5802,"iorresult":5803,"Ġjew":5804,"Ġ1876":5805,"Ġ1879":5806,"Ġtitled":5807,"Ġoutside":5808,"Ġbuijs":5809,"Ġcassidy":5810,"Ġprix":5811,"Ġhelp":5812,"Ġfields":5813,"Ġfielding":5814,"Ġweston":5815,"Ġconsult":5816,"Ġcorrespond":5817,"Ġdepor":5818,"Ġmorton":5819,"ynd":5820,"Ġranks":5821,"Ġsignificant":5822,"Ġtrainer":5823,"Ġdemocrat":5824,"villa":5825,"ĠÃī":5826,"Ġbreton":5827,"Ġeskim":5828,"Ġlibr":5829,"Ġrepresents":5830,"harris":5831,"prof":5832,"Ġfaraz":5833,"ÃŃn":5834,"Ġincumb":5835,"Ġgrandmaster":5836,"Ġ1812":5837,"Ġ1814":5838,"Ġ1817":5839,"Ġrelay":5840,"although":5841,"aisi":5842,"Ġglenn":5843,"Ġglasgow":5844,"Ġbenjamin":5845,"Ġmovies":5846,"Ġoperation":5847,"Ġukraine":5848,"Ġinfluenced":5849,"ĠpantiÄĩ":5850,"Ġlarge":5851,"Ġaffili":5852,"Ġtakaoka":5853,"Ġakana":5854,"Ġcatholicism":5855,"Ġmacc":5856,"Ġfigures":5857,"Ġburial":5858,"Ġolder":5859,"Ġissues":5860,"Ġalongside":5861,"wait":5862,"Ġlightweight":5863,"Ġkeating":5864,"Ġchristopher":5865,"Ġprincipal":5866,"Ġrhodes":5867,"ĠstanisÅĤaw":5868,"Ġprograms":5869,"donald":5870,"Ġcorner":5871,"Ġformula":5872,"Ġtransla":5873,"Ġtransfer":5874,"Ġwritten":5875,"Ġhandicap":5876,"Ġkras":5877,"Ġcontributed":5878,"Ġachieved":5879,"Ġczechoslovakia":5880,"Ġtigers":5881,"Ġhayward":5882,"Ġlosses":5883,"Ġmecklenburg":5884,"Ġmuney":5885,"Ġwayne":5886,"Ġkuwait":5887,"Ġperformances":5888,"Ġhowe":5889,"Ġcontinued":5890,"Ġfeaturing":5891,"Ġmueller":5892,"Ġtackles":5893,"Ġevery":5894,"Ġdiffer":5895,"Ġmathematician":5896,"inzendorf":5897,"Ġwatson":5898,"Ġconviction":5899,"Ġeducated":5900,"Ġboney":5901,"Ġliga":5902,"Ġselezny":5903,"Ġkeyboards":5904,"Ġpersonality":5905,"poel":5906,"Ġernie":5907,"onstantin":5908,"Ġgalat":5909,"Ġcharts":5910,"Ġvacant":5911,"Ġcommonly":5912,"institutions":5913,"coran":5914,"Ġsouza":5915,"Ġthorin":5916,"Ġmendieta":5917,"Ġmoldova":5918,"Ġrespon":5919,"Ġfantasy":5920,"Ġwheater":5921,"Ġemeritus":5922,"Ġphillies":5923,"Ġtraditional":5924,"Ġkessler":5925,"Ġvaughan":5926,"Ġvincent":5927,"umentary":5928,"Ġnevada":5929,"Ġmeehan":5930,"Ġnordahl":5931,"Ġreplaced":5932,"Ġalderman":5933,"ĠÃĸz":5934,"Ġaccompanied":5935,"cricketarchive":5936,"daniel":5937,"Ġhabsburg":5938,"uruvilla":5939,"ĠaragÃ³n":5940,"Ġrenee":5941,"Ġegypt":5942,"Ġtemple":5943,"Ġmaurice":5944,"juniorresult":5945,"Ġsapru":5946,"Ġsickle":5947,"Ġbiddle":5948,"Ġrimouski":5949,"Ġrudman":5950,"Ġrifle":5951,"Ġindoor":5952,"notableworks":5953,"advisor":5954,"Ġsheppard":5955,"Ġferguson":5956,"Ġadministrator":5957,"Ġzimmerman":5958,"films":5959,"following":5960,"Ġbologna":5961,"Ġbolkiah":5962,"Ġmiami":5963,"templates":5964,"Ġnichol":5965,"Ġkutaisi":5966,"Ġkinsky":5967,"Ġarrested":5968,"Ġarmitage":5969,"Ġtogether":5970,"Ġalordiah":5971,"Ġunsuccessful":5972,"Ġbeijing":5973,"Ġmargaret":5974,"associated":5975,"Ġellefson":5976,"Ġdistinguished":5977,"Ġswanepoel":5978,"Ġeskimos":5979,"Ġincumbent":5980,"Ġseleznyova":5981,"14":5982,"46":5983,"79":5984,"82":5985,"90":5986,"96":5987,"aur":5988,"aut":5989,"author":5990,"bel":5991,"bul":5992,"burn":5993,"brew":5994,"cam":5995,"cos":5996,"current":5997,"dd":5998,"fre":5999,"fiction":6000,"gor":6001,"gil":6002,"gie":6003,"gium":6004,"gkin":6005,"geshire":6006,"hp":6007,"hary":6008,"hist":6009,"hach":6010,"hair":6011,"home":6012,"itions":6013,"jack":6014,"jav":6015,"kr":6016,"kes":6017,"kel":6018,"kri":6019,"key":6020,"lis":6021,"luc":6022,"lik":6023,"nig":6024,"nid":6025,"named":6026,"oa":6027,"oh":6028,"ole":6029,"oid":6030,"ours":6031,"pon":6032,"pol":6033,"pite":6034,"punk":6035,"ror":6036,"rnik":6037,"ser":6038,"sam":6039,"sang":6040,"uh":6041,"uins":6042,"var":6043,"vell":6044,"was":6045,"wine":6046,"yuk":6047,"zhe":6048,"zullo":6049,"ÄŁ":6050,"Ðµ":6051,"Ðº":6052,"Ð»":6053,"ÙĦ":6054,"Ġ×":6055,"Ġich":6056,"Ġaz":6057,"Ġaer":6058,"Ġaud":6059,"Ġavenue":6060,"ero":6061,"erick":6062,"erang":6063,"inter":6064,"inson":6065,"inko":6066,"anat":6067,"anian":6068,"anzar":6069,"Ġsf":6070,"Ġss":6071,"Ġsz":6072,"Ġsla":6073,"Ġsay":6074,"Ġsop":6075,"Ġsant":6076,"Ġsier":6077,"Ġsale":6078,"Ġsolic":6079,"Ġsoph":6080,"Ġssr":6081,"Ġsfr":6082,"ora":6083,"Ġbos":6084,"Ġbry":6085,"Ġbab":6086,"Ġbah":6087,"Ġbitney":6088,"tiz":6089,"Ġ1000":6090,"arn":6091,"Ġcel":6092,"Ġcell":6093,"Ġcba":6094,"Ġthr":6095,"Ġthug":6096,"Ġfun":6097,"aling":6098,"alay":6099,"alova":6100,"altemplates":6101,"Ġpent":6102,"Ġpyle":6103,"Ġpfr":6104,"lete":6105,"lect":6106,"leman":6107,"Ġmv":6108,"Ġmust":6109,"Ġmurr":6110,"Ġwo":6111,"Ġwang":6112,"Ġwide":6113,"Ġwind":6114,"Ġwrest":6115,"Ġwagh":6116,"Ġwrote":6117,"Ġwchin":6118,"isi":6119,"isp":6120,"isel":6121,"issb":6122,"Ġott":6123,"Ġopp":6124,"Ġhat":6125,"Ġhul":6126,"Ġhud":6127,"Ġhick":6128,"Ġhors":6129,"Ġhenderson":6130,"rell":6131,"Ġdig":6132,"Ġdim":6133,"Ġdund":6134,"Ġduch":6135,"Ġdowell":6136,"Ġnl":6137,"Ġnam":6138,"Ġnun":6139,"Ġnadeem":6140,"Ġintro":6141,"Ġinform":6142,"Ġanch":6143,"este":6144,"estic":6145,"icas":6146,"ices":6147,"edral":6148,"rol":6149,"Ġtac":6150,"Ġtai":6151,"Ġtony":6152,"Ġtbil":6153,"Ġandy":6154,"Ġjock":6155,"Ġjablonski":6156,"unch":6157,"unki":6158,"Ġgey":6159,"Ġgang":6160,"Ġground":6161,"Ġgarden":6162,"cell":6163,"elve":6164,"chard":6165,"child":6166,"christ":6167,"ilt":6168,"ilar":6169,"urg":6170,"urie":6171,"urces":6172,"ento":6173,"atus":6174,"atory":6175,"Ġly":6176,"Ġlock":6177,"Ġlyn":6178,"Ġlived":6179,"Ġlantz":6180,"Ġlotte":6181,"Ġdeter":6182,"Ġdecl":6183,"Ġdecarlos":6184,"Ġkre":6185,"Ġkel":6186,"Ġkat":6187,"Ġkall":6188,"Ġkap":6189,"Ġkary":6190,"Ġkash":6191,"Ġkeral":6192,"Ġkae":6193,"Ġkopp":6194,"Ġkuruvilla":6195,"heather":6196,"stor":6197,"tica":6198,"Ġrash":6199,"Ġrib":6200,"Ġriff":6201,"Ġrhy":6202,"Ġrico":6203,"Ġford":6204,"omer":6205,"omed":6206,"Ġstand":6207,"Ġstaheli":6208,"Ġyous":6209,"Ġalford":6210,"Ġalbers":6211,"plain":6212,"Ġeint":6213,"Ġcha":6214,"Ġchance":6215,"Ġchase":6216,"Ġchandler":6217,"Ġheather":6218,"Ġhebrew":6219,"ianpur":6220,"Ġuns":6221,"orne":6222,"allen":6223,"ident":6224,"iath":6225,"iatives":6226,"Ġvill":6227,"Ġvene":6228,"Ġvision":6229,"Ġvilla":6230,"Ġview":6231,"Ġviviane":6232,"Ġlef":6233,"Ġwha":6234,"Ġwhat":6235,"racht":6236,"Ġrothman":6237,"Ġuniver":6238,"osh":6239,"Ġfoix":6240,"Ġcov":6241,"Ġcover":6242,"Ġcooke":6243,"Ġprom":6244,"Ġtett":6245,"ociatives":6246,"Ġbea":6247,"Ġbeier":6248,"Ġbeatified":6249,"Ġmarqu":6250,"Ġmartel":6251,"manus":6252,"iece":6253,"shop":6254,"ouk":6255,"essee":6256,"Ġlaval":6257,"Ġlatin":6258,"aka":6259,"Ġcomb":6260,"Ġcomics":6261,"Ġcongo":6262,"Ġconspir":6263,"illian":6264,"isha":6265,"Ġnewton":6266,"Ġjoy":6267,"ĠjoÃ£o":6268,"ovalova":6269,"Ġshot":6270,"endel":6271,"rani":6272,"Ġcollab":6273,"Ġcolomb":6274,"Ġamericas":6275,"odar":6276,"Ġmemp":6277,"Ġmethod":6278,"abd":6279,"Ġjann":6280,"Ġjanata":6281,"Ġserve":6282,"Ġserra":6283,"Ġ400":6284,"Ġbooth":6285,"Ġboumann":6286,"ucker":6287,"Ġ59":6288,"ikh":6289,"Ġorio":6290,"Ġorchest":6291,"ielsen":6292,"Ġcarey":6293,"ecker":6294,"ectively":6295,"zeh":6296,"Ġenco":6297,"okhl":6298,"Ġrecover":6299,"Ġheightweight":6300,"Ġoccup":6301,"Ġpoll":6302,"antom":6303,"Ġ75":6304,"Ġ78":6305,"anga":6306,"Ġknow":6307,"sidis":6308,"therston":6309,"performing":6310,"mental":6311,"Ġbrig":6312,"Ġbrune":6313,"Ġparsons":6314,"Ġschoeller":6315,"Ġ89":6316,"Ġmuslim":6317,"Ġphantom":6318,"seud":6319,"Ġprat":6320,"Ġedis":6321,"Ġedgar":6322,"Ġedmond":6323,"Ġ125":6324,"mail":6325,"quent":6326,"Ġ94":6327,"Ġzh":6328,"Ġzar":6329,"Ġzinzendorf":6330,"Ġjohns":6331,"195":6332,"boumann":6333,"Ġadolf":6334,"Ġfinance":6335,"Ġexeter":6336,"Ġperhap":6337,"Ġafl":6338,"Ġbrought":6339,"tured":6340,"Ġtwins":6341,"Ġtwelve":6342,"anno":6343,"anned":6344,"Ġ113":6345,"Ġussr":6346,"Ġusopen":6347,"Ġnorwe":6348,"Ġbartels":6349,"Ã¡z":6350,"Ã¡cio":6351,"Ġstewart":6352,"wealth":6353,"Ġeven":6354,"Ġevren":6355,"Ġpozzi":6356,"Ġcharan":6357,"Ġincludes":6358,"Ġloth":6359,"Ġpresenter":6360,"hammad":6361,"hamidi":6362,"Ġcrone":6363,"Ġeliot":6364,"ships":6365,"Ġpeak":6366,"Ġclendenin":6367,"Ġpresidential":6368,"Ġbrabham":6369,"llar":6370,"llus":6371,"quez":6372,"Ġdeshp":6373,"Ġdespite":6374,"Ġproducing":6375,"Ġproductions":6376,"velt":6377,"Ġappearing":6378,"Ġdouglas":6379,"Ġassociate":6380,"ĠquÃ©":6381,"vernyuk":6382,"Ġdae":6383,"Ġalbanian":6384,"Ġregent":6385,"ronaut":6386,"Ġswiss":6387,"nationalyears":6388,"Ġvicente":6389,"Ġscienti":6390,"haugh":6391,"Ġpope":6392,"Ġhours":6393,"Ġresign":6394,"Ġsyl":6395,"medaltemplates":6396,"ramento":6397,"vester":6398,"Ġdemonst":6399,"Ġ1877":6400,"alya":6401,"alyst":6402,"Ġpatri":6403,"Ġstudios":6404,"Ġ1883":6405,"Ġmajority":6406,"Ġcastle":6407,"Ġfeature":6408,"Ġfetherston":6409,"Ġfreedom":6410,"Ġconsist":6411,"Ġsaid":6412,"Ġsalt":6413,"Ġsalam":6414,"Ġcorbin":6415,"Ġcorcoran":6416,"Ġqueens":6417,"schis":6418,"Ġsimilar":6419,"Ġdenis":6420,"Ġlongest":6421,"Ġperformer":6422,"Ġxavier":6423,"Ġcambrid":6424,"noon":6425,"Ġsamba":6426,"Ġbelie":6427,"Ġbelgium":6428,"Ġmatte":6429,"Ġjacksonville":6430,"tained":6431,"vili":6432,"Ġwebb":6433,"Ġinstrumental":6434,"Ġtorped":6435,"Ġportray":6436,"Ġblake":6437,"estervelt":6438,"hiro":6439,"Ġcyr":6440,"Ġholland":6441,"Ġemi":6442,"Ġthirty":6443,"Ġkarin":6444,"Ġromania":6445,"Ġepic":6446,"Ġslovak":6447,"Ġsloven":6448,"Ġsurge":6449,"enzong":6450,"Ġtommy":6451,"cause":6452,"Ġ1813":6453,"Ġ1816":6454,"Ġprogressive":6455,"ulation":6456,"Ġcathedral":6457,"Ġshared":6458,"Ġglen":6459,"uddenham":6460,"suit":6461,"Ġodadjian":6462,"Ġjoshua":6463,"Ġmadison":6464,"Ġsubcat":6465,"Ġcivic":6466,"Ġhamad":6467,"Ġhammond":6468,"Ġnicknamed":6469,"Ġorganiz":6470,"Ġ1858":6471,"Ġassists":6472,"Ġakron":6473,"Ġbassist":6474,"Ġplan":6475,"Ġplant":6476,"Ġpalest":6477,"Ġraphael":6478,"Ġdunlap":6479,"Ġalfonso":6480,"Ġclassic":6481,"Ġconnection":6482,"Ġadams":6483,"Ġfights":6484,"Ġdrummer":6485,"Ġtaught":6486,"Ġturnt":6487,"Ġgraham":6488,"Ġkhokhl":6489,"Ġbroncos":6490,"Ġhonorary":6491,"Ġrichardson":6492,"Ġremain":6493,"Ġmiddleton":6494,"Ġrhine":6495,"Ġrhode":6496,"Ġabdulaziz":6497,"Ġsisters":6498,"Ġcornillet":6499,"Ġcardinal":6500,"Ġrams":6501,"Ġexperi":6502,"Ġphilippine":6503,"Ġsaty":6504,"Ġmathe":6505,"Ġdiocese":6506,"Ġtalent":6507,"Ġsporting":6508,"stars":6509,"Ġselection":6510,"Ġcomplete":6511,"Ġcompleted":6512,"Ġbulgarian":6513,"Äįi":6514,"Ġraunki":6515,"Ġvikings":6516,"Ġserbia":6517,"Ġrecognition":6518,"Ġfrancesa":6519,"Ġ1798":6520,"Ġzimbab":6521,"Ġoriginalteam":6522,"Ġjacobs":6523,"Ġdoris":6524,"chenko":6525,"Ġlincolnshire":6526,"Ġcrimes":6527,"Ġswedish":6528,"Ġurugu":6529,"Ġhodgkin":6530,"Ġnigel":6531,"Ġlimerick":6532,"ĠrenÃ©":6533,"Ġundraftedyear":6534,"Ġimpact":6535,"Ġeducator":6536,"Ġepisode":6537,"Ġepiscop":6538,"prior":6539,"Ġfulop":6540,"Ġfulton":6541,"Ġmiyagi":6542,"Ġoakland":6543,"Ġagriculture":6544,"Ġphysicist":6545,"Ġcatanzar":6546,"Ġhyde":6547,"Ġpromotion":6548,"Ġconstruction":6549,"Ġcommonwealth":6550,"Ġmurders":6551,"josÃ©":6552,"Ġsouter":6553,"Ġbernard":6554,"Ġpornographic":6555,"Ġdynamo":6556,"Ġdynasty":6557,"Ġchamber":6558,"ampaign":6559,"Ġsorok":6560,"Ġcfb":6561,"Ġinfantry":6562,"Ġsemi":6563,"Ġmemorial":6564,"Ġsculptor":6565,"Ġbushman":6566,"Ġparticularly":6567,"Ġblood":6568,"Ġtasman":6569,"Ġlamb":6570,"Ġjaneiro":6571,"Ġdiscovered":6572,"Ġnikolai":6573,"Ġcska":6574,"Ġcassina":6575,"Ġpapal":6576,"Ġmixed":6577,"Ġappeals":6578,"Ġnottinghamshire":6579,"Ġpublishing":6580,"partner":6581,"Ã¦r":6582,"Ġcadman":6583,"Ġcastro":6584,"Ġcultural":6585,"Ġwitness":6586,"Ġgiovanna":6587,"Ġriding":6588,"Ġblondie":6589,"Ġemploy":6590,"Ġsubsequently":6591,"Ġnigeria":6592,"Ġprosecutor":6593,"between":6594,"Ġsafety":6595,"Ġhunter":6596,"Ġhusband":6597,"Ġhannachi":6598,"Ġdocumentary":6599,"Ġtangerang":6600,"Ġtennessee":6601,"Ġcooley":6602,"Ġcousin":6603,"ĠhernÃ¡ndez":6604,"Ġgymnast":6605,"oumand":6606,"singles":6607,"Ġselvan":6608,"Ġjenner":6609,"Ġkonovalova":6610,"Ġkazakh":6611,"Ġplatform":6612,"Ġtestified":6613,"akashvili":6614,"ĠuniversitÃ©":6615,"Ġfilipino":6616,"Ġsynth":6617,"football":6618,"Ġhollywood":6619,"Ġdatabasefootball":6620,"Ġsacramento":6621,"Ġbennett":6622,"Ġwanderers":6623,"Ġnunez":6624,"ĠgÃ³rnik":6625,"Ġlionel":6626,"Ġkosovo":6627,"ĠkukÃ«":6628,"aciari":6629,"Ġvariety":6630,"Ġprolific":6631,"abrata":6632,"Ġabstract":6633,"Ġgalatto":6634,"zhemal":6635,"Ġsierra":6636,"Ġsolicitor":6637,"Ġthugutt":6638,"Ġpentath":6639,"Ġmurray":6640,"Ġwaghorn":6641,"Ġwchinitz":6642,"issbecker":6643,"Ġottawa":6644,"Ġanchor":6645,"Ġtbilisi":6646,"Ġkallianpur":6647,"Ġkarylle":6648,"Ġkerala":6649,"Ġkaepernick":6650,"Ġriffel":6651,"Ġrhythm":6652,"Ġeintracht":6653,"Ġtettau":6654,"Ġconspiracy":6655,"Ġmemphis":6656,"Ġorioles":6657,"Ġbrunei":6658,"Ġedmonds":6659,"Ġnorwegian":6660,"Ġdeshpande":6661,"Ġfetherstonhaugh":6662,"Ġcambridgeshire":6663,"Ġtorpedo":6664,"Ġkhokhlova":6665,"ĠraunkiÃ¦r":6666,"Ġzimbabwe":6667,"Ġuruguay":6668,"Ġcatanzaro":6669,"05":6670,"08":6671,"38":6672,"41":6673,"42":6674,"66":6675,"69":6676,"71":6677,"@@":6678,"aa":6679,"bu":6680,"bun":6681,"cing":6682,"cent":6683,"cup":6684,"cess":6685,"ctions":6686,"cza":6687,"df":6688,"dor":6689,"des":6690,"duc":6691,"dine":6692,"dog":6693,"ect":6694,"eks":6695,"fern":6696,"gal":6697,"gory":6698,"ghan":6699,"gift":6700,"hic":6701,"hat":6702,"horn":6703,"hod":6704,"hwa":6705,"hassan":6706,"ique":6707,"jim":6708,"juan":6709,"kk":6710,"kelly":6711,"loc":6712,"lja":6713,"listed":6714,"luna":6715,"mc":6716,"mate":6717,"mus":6718,"mat":6719,"mian":6720,"mud":6721,"macht":6722,"nar":6723,"nla":6724,"nie":6725,"ners":6726,"naciari":6727,"oted":6728,"pic":6729,"pat":6730,"pet":6731,"polis":6732,"qla":6733,"qme":6734,"rl":6735,"rice":6736,"rÃ¢":6737,"rcb":6738,"sar":6739,"tation":6740,"tment":6741,"uals":6742,"uable":6743,"vna":6744,"wo":6745,"wid":6746,"writ":6747,"wright":6748,"yam":6749,"zal":6750,"zel":6751,"zqu":6752,"zhan":6753,"ÅĻ":6754,"ÈĻ":6755,"ÑĤ":6756,"Õ¡":6757,"Ø§":6758,"Ùħ":6759,"ĠÄ":6760,"Ġrb":6761,"Ġted":6762,"Ġaka":6763,"erated":6764,"ergy":6765,"thal":6766,"thani":6767,"thias":6768,"inck":6769,"intire":6770,"oner":6771,"onic":6772,"anor":6773,"ange":6774,"anÃ©":6775,"Ġsud":6776,"Ġsack":6777,"Ġsade":6778,"Ġsmyth":6779,"ori":6780,"ortion":6781,"orced":6782,"orough":6783,"Ġbit":6784,"Ġbent":6785,"Ġbug":6786,"Ġbou":6787,"Ġbord":6788,"Ġbio":6789,"Ġbash":6790,"tition":6791,"titt":6792,"article":6793,"Ġcn":6794,"Ġcot":6795,"Ġcow":6796,"Ġcly":6797,"Ġcamil":6798,"Ġcoss":6799,"Ġcampaign":6800,"eno":6801,"ener":6802,"enos":6803,"Ġthings":6804,"Ġthrew":6805,"Ġfla":6806,"Ġfat":6807,"Ġfill":6808,"alam":6809,"alat":6810,"alty":6811,"alberto":6812,"aliza":6813,"alchik":6814,"alaksh":6815,"Ġped":6816,"Ġpard":6817,"ĠpÃ©":6818,"Ġpied":6819,"Ġpeng":6820,"lez":6821,"Ġmla":6822,"Ġmand":6823,"Ġmash":6824,"Ġmanda":6825,"Ġmental":6826,"Ġwy":6827,"Ġwatch":6828,"Ġwww":6829,"Ġwings":6830,"Ġwelf":6831,"Ġwsop":6832,"Ġwimb":6833,"Ġwestervelt":6834,"tec":6835,"teiro":6836,"iser":6837,"ised":6838,"Ġoz":6839,"Ġols":6840,"Ġobe":6841,"Ġhous":6842,"Ġhier":6843,"Ġhib":6844,"ref":6845,"reme":6846,"reys":6847,"Ġdag":6848,"Ġdres":6849,"Ġdedic":6850,"Ġdublin":6851,"Ġdungan":6852,"Ġdzhemal":6853,"Ġns":6854,"Ġnard":6855,"Ġnone":6856,"Ġnike":6857,"Ġnico":6858,"Ġnathan":6859,"Ġnalchik":6860,"asz":6861,"aman":6862,"ammal":6863,"Ġanalyst":6864,"icester":6865,"icluna":6866,"edd":6867,"edra":6868,"edones":6869,"editary":6870,"rober":6871,"royo":6872,"Ġtap":6873,"Ġtart":6874,"Ġtav":6875,"Ġtry":6876,"ĠtÄĥ":6877,"ingen":6878,"Ġandre":6879,"Ġandino":6880,"Ġjag":6881,"Ġgab":6882,"Ġgendall":6883,"Ġgjess":6884,"elled":6885,"usa":6886,"usha":6887,"chise":6888,"olker":6889,"ils":6890,"ilson":6891,"uraj":6892,"entures":6893,"atter":6894,"Ġlus":6895,"Ġlov":6896,"Ġlog":6897,"ĠlÃ³":6898,"Ġlower":6899,"Ġlilian":6900,"iga":6901,"igrated":6902,"Ġdehn":6903,"Ġdexter":6904,"Ġki":6905,"Ġkor":6906,"Ġkad":6907,"Ġkow":6908,"Ġkick":6909,"Ġkbo":6910,"Ġkais":6911,"Ġkwan":6912,"Ġklim":6913,"Ġkavan":6914,"Ġkrystal":6915,"Ġkonstantin":6916,"Ġkolker":6917,"Ġreso":6918,"Ġreyn":6919,"ationally":6920,"Ġara":6921,"Ġarran":6922,"Ġartis":6923,"Ġartie":6924,"Ġarroyo":6925,"stud":6926,"stown":6927,"Ġraf":6928,"Ġrally":6929,"Ġrnla":6930,"Ġforced":6931,"Ġfornaciari":6932,"adze":6933,"aglia":6934,"sim":6935,"sively":6936,"omm":6937,"omes":6938,"Ġisa":6939,"Ġistan":6940,"terfield":6941,"terweight":6942,"andar":6943,"andre":6944,"tleworth":6945,"Ġstor":6946,"Ġstay":6947,"Ġstren":6948,"Ġstash":6949,"Ġstlb":6950,"Ġyam":6951,"ulam":6952,"ulik":6953,"Ġalc":6954,"Ġalice":6955,"Ġalberto":6956,"Ġalvar":6957,"titles":6958,"Ġet":6959,"Ġech":6960,"Ġchang":6961,"Ġchinn":6962,"Ġchester":6963,"Ġchely":6964,"vetiÄĩ":6965,"Ġheer":6966,"Ġheat":6967,"Ġheidel":6968,"accord":6969,"Ġasked":6970,"vert":6971,"Ġuno":6972,"Ġunex":6973,"idus":6974,"Ġvid":6975,"Ġvital":6976,"Ġvps":6977,"ayama":6978,"ettes":6979,"uts":6980,"uttleworth":6981,"owder":6982,"Ġseen":6983,"Ġseate":6984,"Ġsemp":6985,"Ġsemin":6986,"Ġlect":6987,"Ġleast":6988,"Ġleeds":6989,"Ġleagues":6990,"Ġleicester":6991,"ctly":6992,"iston":6993,"istan":6994,"rik":6995,"riac":6996,"ugal":6997,"ume":6998,"umi":6999,"umm":7000,"osted":7001,"arts":7002,"arty":7003,"arton":7004,"Ġfood":7005,"Ġcop":7006,"Ġcoughlin":7007,"Ġcourse":7008,"Ġprote":7009,"geous":7010,"Ġtess":7011,"Ġimper":7012,"usty":7013,"Ġnep":7014,"Ġmarco":7015,"Ġmarlow":7016,"iez":7017,"shot":7018,"Ġspir":7019,"Ġspokes":7020,"Ġspencer":7021,"Ġlah":7022,"Ġcomment":7023,"Ġcontest":7024,"esto":7025,"illermo":7026,"ifford":7027,"Ġnewport":7028,"oved":7029,"ovÃ¡":7030,"Ġshao":7031,"Ġcoll":7032,"Ġcolom":7033,"avian":7034,"ebvre":7035,"Ġmeg":7036,"Ġmeier":7037,"Ġmeena":7038,"abinsk":7039,"versy":7040,"ipeg":7041,"Ġboer":7042,"Ġboyce":7043,"irelja":7044,"ucas":7045,"ucks":7046,"Ġ58":7047,"tonzo":7048,"osik":7049,"unda":7050,"elli":7051,"Ġscar":7052,"Ġscicluna":7053,"Ġmohi":7054,"Ġmounce":7055,"Ġoreg":7056,"Ġorzel":7057,"Ġcare":7058,"Ġcarter":7059,"zej":7060,"Ġnoble":7061,"Ġenvir":7062,"ffany":7063,"leste":7064,"Ġrecru":7065,"owned":7066,"Ġjulius":7067,"Ġoccas":7068,"Ġhermann":7069,"Ġhereditary":7070,"assin":7071,"assnig":7072,"Ã©r":7073,"Ã©llar":7074,"Ġ72":7075,"Ġ79":7076,"Ġuqla":7077,"angion":7078,"Ġkne":7079,"Ġcurrentposition":7080,"Ġfirm":7081,"Ġmans":7082,"Ġmanif":7083,"Ġmanzullo":7084,"there":7085,"therland":7086,"Ġdecemberists":7087,"onda":7088,"Ġbrand":7089,"Ġbristol":7090,"Ġbrighton":7091,"Ġbricker":7092,"ulls":7093,"Ġparent":7094,"Ġprus":7095,"Ġedition":7096,"Ġeduard":7097,"Ġ101":7098,"Ġ103":7099,"Ġminas":7100,"Ġminne":7101,"Ġreport":7102,"Ġ93":7103,"Ġ97":7104,"ĠsuÃ¡":7105,"Ġgene":7106,"Ġgenoc":7107,"asha":7108,"Ġzia":7109,"Ġzab":7110,"Ġzah":7111,"Ġzone":7112,"ĠzÃ¼":7113,"Ġzhu":7114,"sheikha":7115,"Ġsheikha":7116,"board":7117,"book":7118,"Ġadrian":7119,"Ġadalbert":7120,"Ġadela":7121,"Ġworkplaces":7122,"Ġfranchise":7123,"Ġdrawn":7124,"Ġ1604":7125,"Ġfilmm":7126,"Ġwealth":7127,"Ġwehr":7128,"Ġweissbecker":7129,"Ġweeks":7130,"Ġexcell":7131,"Ġpersi":7132,"Ġperman":7133,"Ġafghan":7134,"Ġafzal":7135,"Ġbross":7136,"Ġacqu":7137,"olds":7138,"Ġbasaglia":7139,"annone":7140,"annette":7141,"Ġbarioz":7142,"azar":7143,"Ġwarwick":7144,"Ġguest":7145,"Ġgerais":7146,"Ġsteing":7147,"Ġstehl":7148,"Ġbacking":7149,"encing":7150,"Ġmedalist":7151,"coe":7152,"Ġevol":7153,"burton":7154,"Ġcharge":7155,"atih":7156,"atiya":7157,"loe":7158,"afa":7159,"Ġstatseason":7160,"Ġgram":7161,"Ġability":7162,"Ġirving":7163,"Ġharari":7164,"Ġsochi":7165,"cape":7166,"Ġearli":7167,"Ġsanj":7168,"Ġpeace":7169,"Ġpeters":7170,"Ġpeggy":7171,"Ġblock":7172,"Ġblitz":7173,"Ġweightlif":7174,"Ġmonte":7175,"Ġmonmouth":7176,"Ġchampions":7177,"inny":7178,"Ġgreater":7179,"Ġmichurin":7180,"pez":7181,"peter":7182,"Ġamin":7183,"ĠamÃ©":7184,"atherine":7185,"Ġregion":7186,"Ġattkis":7187,"liga":7188,"inda":7189,"nationalteam":7190,"nationalpoints":7191,"gery":7192,"haus":7193,"Ġresist":7194,"Ġretiring":7195,"Ġsymb":7196,"evo":7197,"ulty":7198,"Ġwellington":7199,"Ġ1860":7200,"Ġ1861":7201,"Ġ1862":7202,"Ġothername":7203,"Ġlegend":7204,"Ã¼hr":7205,"Ġlouisville":7206,"Ġbuilt":7207,"Ġbuenos":7208,"Ġstudy":7209,"Ġ1882":7210,"Ġ1884":7211,"Ġ1888":7212,"Ġeventually":7213,"minster":7214,"Ġprieto":7215,"Ġhelsin":7216,"most":7217,"Ġskater":7218,"Ġskvernyuk":7219,"Ġsalman":7220,"ĠsalÃ©":7221,"Ġsalhab":7222,"Ġsuppor":7223,"Ġyounger":7224,"rapp":7225,"Ġfoundation":7226,"Ġmori":7227,"hanammal":7228,"itzner":7229,"Ġxii":7230,"Ġinterim":7231,"Ġinterior":7232,"Ġprimary":7233,"nozhan":7234,"Ġbelong":7235,"Ġluiz":7236,"Ġtestdebutyear":7237,"Ġcreate":7238,"Ġcreator":7239,"Ġgoldsb":7240,"Ġjacksons":7241,"Ġbreeland":7242,"Ġestim":7243,"Ġportland":7244,"Ġportugal":7245,"Ġliu":7246,"Ġfrankie":7247,"Ġfrankfurt":7248,"Ġdesigned":7249,"Ġavn":7250,"Ġaviv":7251,"Ġarchae":7252,"Ġmusicians":7253,"Ġfarm":7254,"Ġfarmer":7255,"Ġkara":7256,"Ġtechno":7257,"Ġmagomed":7258,"Ġsurvey":7259,"Ġsurgery":7260,"Ġdivorced":7261,"Ġtowns":7262,"Ġdrink":7263,"Ġdrucker":7264,"Ġeleven":7265,"Ġmakusha":7266,"Ġdomina":7267,"Ġtreas":7268,"Ġsixth":7269,"Ġtenure":7270,"Ġ1804":7271,"Ġleadership":7272,"Ġmovie":7273,"Ġodi":7274,"Ġjosh":7275,"Ġmadoun":7276,"Ġwoodworth":7277,"Ġjerko":7278,"Ġcele":7279,"Ġpanel":7280,"Ġmerli":7281,"Ġwesley":7282,"Ġargu":7283,"Ġargona":7284,"2010":7285,"Ġopened":7286,"Ġhambridge":7287,"Ġhamzeh":7288,"Ġvotes":7289,"1992":7290,"1994":7291,"1997":7292,"1999":7293,"Ġlarrousse":7294,"Ġracer":7295,"Ġ1853":7296,"Ġ1854":7297,"Ġtaken":7298,"Ġtaking":7299,"Ġ1832":7300,"Ġ1836":7301,"Ġakbar":7302,"Ġboroumand":7303,"Ġnbl":7304,"Ġdevon":7305,"Ġtrading":7306,"bross":7307,"hoteiro":7308,"Ġjacques":7309,"ructor":7310,"Ġmontene":7311,"ĠmontanÃ©":7312,"richt":7313,"Ġalfons":7314,"Ġveter":7315,"Ġvegas":7316,"Ġburlington":7317,"Ġroberto":7318,"Ġstephens":7319,"werdine":7320,"Ġlineup":7321,"Ġcongression":7322,"gaard":7323,"uzi":7324,"Ġduo":7325,"Ġnatalya":7326,"Ġobree":7327,"Ġkhalif":7328,"Ġbobby":7329,"Ġkeith":7330,"Ġphoto":7331,"Ġminority":7332,"borhood":7333,"instruments":7334,"Ġchef":7335,"Ġprestig":7336,"Ġdecorated":7337,"Ġdiscip":7338,"Ġfaith":7339,"Ġfaustino":7340,"Ġferdin":7341,"Ġdrift":7342,"Ġdaniels":7343,"Ġsatterfield":7344,"Ġethniki":7345,"Ġpaolo":7346,"Ġandrade":7347,"Ġcomplex":7348,"Ġspecializ":7349,"Äįar":7350,"Ġbiology":7351,"Ġbiggest":7352,"tiglio":7353,"Ġjordy":7354,"Ġraid":7355,"Ġtight":7356,"Ġiranian":7357,"cussion":7358,"Ġpenev":7359,"Ġinnoc":7360,"Ġcycling":7361,"Ġargentine":7362,"Ġbachar":7363,"Ġmikel":7364,"Ġgilles":7365,"Ġkuqi":7366,"Ġashok":7367,"Ġzimbru":7368,"Ġcommissioner":7369,"Ġtracks":7370,"personnel":7371,"Ġmacho":7372,"Ġhoward":7373,"Ġcriminal":7374,"Ã§a":7375,"Ġjakovich":7376,"Ġgregory":7377,"Ġsimply":7378,"Ġhawai":7379,"Ġjonathan":7380,"Ġmathematics":7381,"Ġfernando":7382,"Ġwelterweight":7383,"Ġweekend":7384,"Ġcontroversy":7385,"Ġlasttestdate":7386,"Ġlasttestyear":7387,"Ġbadan":7388,"Ġpodium":7389,"Ġoaks":7390,"Ġnarain":7391,"Ġligue":7392,"Ġkwitney":7393,"Ġagricola":7394,"Ġmaxim":7395,"Ã´nid":7396,"Ġbulls":7397,"Ġfloinn":7398,"institution":7399,"Ġhuriez":7400,"Ġjarosik":7401,"Ġheavyweight":7402,"Ġletters":7403,"Ġbeauties":7404,"Ġconfir":7405,"Ã¼rgen":7406,"Ã¶nig":7407,"Ġlanguages":7408,"Ġglobalport":7409,"Ġsquadron":7410,"Ġaiken":7411,"Ġcfldrafted":7412,"Ġfelic":7413,"Ġfaculty":7414,"Ġsculpture":7415,"Ġiraq":7416,"Ġpitched":7417,"Ġidenti":7418,"Ġahlin":7419,"Ġmladost":7420,"Ġreferee":7421,"Ġdiscovery":7422,"Ġbuilding":7423,"eanu":7424,"Ã¯d":7425,"Ġaires":7426,"Ġinstructor":7427,"Ġlipschis":7428,"Ġeugene":7429,"Ġneighbors":7430,"Ġneighborhood":7431,"Ġhistorian":7432,"Ġtestdebutdate":7433,"voÅĻ":7434,"Ġiain":7435,"Ġbharatiya":7436,"Ġpunj":7437,"Ġwinnipeg":7438,"Ġnairob":7439,"Ġgreek":7440,"Ġarnold":7441,"Ġparalympic":7442,"Ġprisoner":7443,"Ġstatsend":7444,"Ġbriefly":7445,"Ġacclaimed":7446,"jeraye":7447,"Ġsabres":7448,"Ġantonia":7449,"Ġjamie":7450,"Ġkameisha":7451,"Ġmarriott":7452,"Ġcomedian":7453,"Ġdispute":7454,"Ġinvestor":7455,"bakoto":7456,"katalaksh":7457,"ĠcuÃ©llar":7458,"ĠcÃ´tÃ©":7459,"Ġfavorite":7460,"Ġpageant":7461,"ĠgonzÃ¡":7462,"oliÅĦ":7463,"Ġstakes":7464,"Ġproperty":7465,"Ġspinelli":7466,"Ġhassanal":7467,"Ġbestseller":7468,"Ġswimming":7469,"Ġvictims":7470,"cestershire":7471,"Ġmcneal":7472,"Ġbaptist":7473,"Ġcubs":7474,"Ġpfitzner":7475,"Ġpereira":7476,"Ġmamnoon":7477,"Ġwerner":7478,"Ġwrite":7479,"Ġinaugural":7480,"Ġtulane":7481,"Ġravens":7482,"Ġprobably":7483,"Ġcapitol":7484,"Ġshepard":7485,"Ġevangelical":7486,"Ġdissociatives":7487,"Ġconsultant":7488,"Ġoldershaw":7489,"Ġcornerback":7490,"krieg":7491,"ispatih":7492,"Ġdigital":7493,"Ġdundee":7494,"Ġkatsidis":7495,"Ġrashani":7496,"Ġchaos":7497,"Ġvillar":7498,"Ġvenetiglio":7499,"Ġorchestra":7500,"Ġoccupied":7501,"Ġpratap":7502,"Ġperhaps":7503,"Ã¡zquez":7504,"Ġscientific":7505,"Ġsylvester":7506,"Ġpatriots":7507,"Ġmatheus":7508,"zquita":7509,"Ġbugadze":7510,"Ġcotton":7511,"ĠpÃ©rez":7512,"Ġpiedmont":7513,"Ġwelfare":7514,"Ġwimbled":7515,"Ġhierl":7516,"Ġhibbert":7517,"Ġdagest":7518,"Ġnardini":7519,"roberts":7520,"Ġtartu":7521,"ĠtÄĥrÃ¢":7522,"Ġgjessing":7523,"ĠlÃ³pez":7524,"Ġkowal":7525,"Ġklimenko":7526,"Ġreynolds":7527,"Ġarranger":7528,"Ġistanbul":7529,"Ġstreng":7530,"Ġstashwick":7531,"Ġalvarado":7532,"Ġchelyabinsk":7533,"according":7534,"ĠsempoliÅĦ":7535,"Ġtessa":7536,"Ġimperial":7537,"Ġoregon":7538,"Ġenviron":7539,"Ġminneapolis":7540,"ĠsuÃ¡rez":7541,"ĠzÃ¼rich":7542,"Ġadelaide":7543,"Ġwehrmacht":7544,"Ġwarwickshire":7545,"Ġearliest":7546,"Ġmonmouthshire":7547,"Ġattkisson":7548,"Ã¼hrer":7549,"Ġhelsinki":7550,"Ġgoldsborough":7551,"Ġmadouni":7552,"Ġargonauts":7553,"Ġcongressional":7554,"Ġkhalifa":7555,"Ġprestigious":7556,"Ġferdinand":7557,"Ã´nidas":7558,"voÅĻÃ¡k":7559,"Ġnairobi":7560,"ĠgonzÃ¡lez":7561,"02":7562,"31":7563,"50":7564,"94":7565,"97":7566,"bas":7567,"bra":7568,"bell":7569,"bull":7570,"bone":7571,"city":7572,"caw":7573,"cÄ±":7574,"db":7575,"dj":7576,"dem":7577,"duk":7578,"detti":7579,"dwid":7580,"ei":7581,"east":7582,"efe":7583,"fd":7584,"fay":7585,"fade":7586,"fisk":7587,"fÃ¼hrer":7588,"ging":7589,"gve":7590,"gio":7591,"gai":7592,"gger":7593,"gÃ¼":7594,"ghi":7595,"ggen":7596,"has":7597,"him":7598,"hiv":7599,"hung":7600,"hwan":7601,"hussein":7602,"half":7603,"hawks":7604,"iary":7605,"ires":7606,"iques":7607,"jk":7608,"jpe":7609,"jose":7610,"jÃ¶":7611,"jablonski":7612,"kv":7613,"kÃ¡":7614,"ksti":7615,"lsh":7616,"lou":7617,"long":7618,"lker":7619,"lived":7620,"mg":7621,"may":7622,"mos":7623,"mith":7624,"mov":7625,"mma":7626,"mates":7627,"nies":7628,"ncl":7629,"nai":7630,"ncricinfo":7631,"otia":7632,"pin":7633,"pey":7634,"pop":7635,"pass":7636,"pah":7637,"pris":7638,"powder":7639,"rin":7640,"rath":7641,"rge":7642,"rÃ³":7643,"rÃ¶":7644,"sum":7645,"tom":7646,"tra":7647,"tors":7648,"tÃ³":7649,"vi":7650,"von":7651,"vid":7652,"vÃ¡":7653,"wal":7654,"wers":7655,"wak":7656,"wich":7657,"wang":7658,"wford":7659,"yat":7660,"youl":7661,"zas":7662,"zig":7663,"zine":7664,"zka":7665,"zhou":7666,"Ã²":7667,"Å«":7668,"Å¾":7669,"Ê»":7670,"ÑĢ":7671,"×¨":7672,"ÙĬ":7673,"à¥":7674,"æĸ":7675,"æĿ":7676,"Ġ+":7677,"Ġ@":7678,"Ġ|":7679,"Ġì":7680,"Ġord":7681,"Ġiz":7682,"Ġvern":7683,"Ġesse":7684,"Ġà¤":7685,"ģÄĻ":7686,"ĩÄ±":7687,"ľmit":7688,"Ġame":7689,"Ġamy":7690,"Ġaless":7691,"Ġaux":7692,"Ġaqme":7693,"eri":7694,"ering":7695,"tha":7696,"these":7697,"thuiz":7698,"inen":7699,"iners":7700,"inari":7701,"onen":7702,"onis":7703,"onia":7704,"onse":7705,"onius":7706,"anan":7707,"anova":7708,"anlan":7709,"Ġsund":7710,"Ġsung":7711,"Ġsind":7712,"Ġsite":7713,"Ġsnap":7714,"orum":7715,"origin":7716,"orets":7717,"Ġbt":7718,"Ġbac":7719,"Ġbard":7720,"Ġbart":7721,"Ġbion":7722,"Ġbak":7723,"Ġbell":7724,"Ġbond":7725,"Ġbled":7726,"Ġbau":7727,"Ġbiff":7728,"Ġbomb":7729,"Ġbaksh":7730,"tiar":7731,"tiful":7732,"arh":7733,"arri":7734,"Ġcb":7735,"Ġcd":7736,"Ġces":7737,"Ġcit":7738,"Ġcim":7739,"Ġclo":7740,"enh":7741,"ename":7742,"enov":7743,"enlan":7744,"Ġther":7745,"Ġthai":7746,"Ġthunder":7747,"Ġthumb":7748,"Ġft":7749,"Ġfu":7750,"Ġfro":7751,"Ġfresh":7752,"ality":7753,"alÃ©":7754,"Ġpas":7755,"Ġpel":7756,"Ġpack":7757,"Ġpend":7758,"Ġpair":7759,"Ġpure":7760,"Ġpng":7761,"Ġpelle":7762,"Ġporter":7763,"Ġpseud":7764,"lem":7765,"lex":7766,"leigh":7767,"leader":7768,"leuli":7769,"Ġmb":7770,"Ġmorn":7771,"Ġmap":7772,"Ġmull":7773,"Ġmater":7774,"Ġmys":7775,"Ġmite":7776,"Ġmald":7777,"Ġmitch":7778,"Ġmgang":7779,"Ġwu":7780,"Ġwol":7781,"Ġwall":7782,"Ġwages":7783,"Ġwaff":7784,"Ġwncl":7785,"teg":7786,"tees":7787,"teous":7788,"Ġtheod":7789,"Ġtheuer":7790,"Ġour":7791,"Ġost":7792,"Ġotis":7793,"Ġoulu":7794,"Ġhir":7795,"Ġhug":7796,"Ġhov":7797,"Ġhurr":7798,"Ġhort":7799,"Ġholl":7800,"Ġhoss":7801,"ĠhÃ¶":7802,"Ġhwon":7803,"Ġhighton":7804,"Ġhrn":7805,"Ġhosted":7806,"Ġhvid":7807,"reu":7808,"rev":7809,"recht":7810,"Ġdw":7811,"Ġdorn":7812,"Ġdak":7813,"Ġdial":7814,"Ġdoll":7815,"Ġdna":7816,"Ġduty":7817,"Ġdenny":7818,"Ġdhanammal":7819,"Ġnand":7820,"Ġnap":7821,"Ġnames":7822,"Ġnied":7823,"Ġnakh":7824,"Ġnolan":7825,"Ġnielsen":7826,"astic":7827,"aster":7828,"asia":7829,"asima":7830,"amar":7831,"amsa":7832,"amble":7833,"amura":7834,"Ġani":7835,"escu":7836,"laots":7837,"icial":7838,"roy":7839,"rose":7840,"robert":7841,"Ġtin":7842,"Ġtren":7843,"Ġtina":7844,"Ġtavor":7845,"Ġtuddenham":7846,"ingchen":7847,"Ġandrey":7848,"Ġja":7849,"Ġjat":7850,"Ġjae":7851,"ĠjÃ¼rgen":7852,"Ġgus":7853,"Ġgol":7854,"Ġgag":7855,"Ġgot":7856,"Ġgia":7857,"Ġgys":7858,"Ġgale":7859,"ĠgÃ¢":7860,"Ġgains":7861,"elius":7862,"ustee":7863,"itan":7864,"itals":7865,"chap":7866,"chant":7867,"olcs":7868,"ilure":7869,"ilty":7870,"urist":7871,"urry":7872,"urci":7873,"entor":7874,"entry":7875,"Ġlg":7876,"Ġlen":7877,"Ġlal":7878,"Ġlil":7879,"Ġlia":7880,"ĠlÃ¡":7881,"Ġlump":7882,"Ġlomb":7883,"Ġlassnig":7884,"Ġbirthname":7885,"igg":7886,"Ġdean":7887,"Ġdeck":7888,"Ġkm":7889,"Ġky":7890,"Ġkin":7891,"Ġkov":7892,"Ġkah":7893,"Ġkann":7894,"ĠkÃ¼":7895,"Ġkyle":7896,"Ġkato":7897,"Ġkumon":7898,"Ġkush":7899,"Ġkulik":7900,"Ġkunda":7901,"ĠkÃ¶nig":7902,"Ġreplace":7903,"Ġreich":7904,"Ġrefor":7905,"Ġremember":7906,"Ġreiche":7907,"Ġarsen":7908,"heorg":7909,"str":7910,"stop":7911,"strow":7912,"Ġring":7913,"Ġriv":7914,"Ġrah":7915,"Ġratch":7916,"Ġruth":7917,"Ġwasan":7918,"Ġforest":7919,"Ġforec":7920,"Ġforens":7921,"adr":7922,"ady":7923,"adas":7924,"adium":7925,"Ġtodd":7926,"omorets":7927,"ime":7928,"ims":7929,"Ġisay":7930,"tered":7931,"andrew":7932,"Ġsty":7933,"Ġsting":7934,"Ġstra":7935,"Ġstanding":7936,"Ġstrock":7937,"Ġstadium":7938,"Ġyann":7939,"Ġyarm":7940,"Ġyasser":7941,"Ġalash":7942,"Ġalways":7943,"Ġalmost":7944,"Ġey":7945,"Ġeto":7946,"Ġegar":7947,"Ġewing":7948,"Ġeidus":7949,"Ġchid":7950,"Ġchenn":7951,"Ġchile":7952,"Ġchmel":7953,"Ġchallen":7954,"vez":7955,"Ġheir":7956,"Ġhewerdine":7957,"acional":7958,"Ġasher":7959,"very":7960,"Ġarticles":7961,"otb":7962,"apest":7963,"ighteous":7964,"Ġviel":7965,"Ġvind":7966,"Ġviet":7967,"Ġvinny":7968,"ĠvÃ¡zquez":7969,"ayo":7970,"etton":7971,"etnik":7972,"Ġleen":7973,"Ġlege":7974,"Ġlester":7975,"Ġleandro":7976,"ĠleÃ´nidas":7977,"athard":7978,"athaling":7979,"Ġwhar":7980,"Ġwheler":7981,"Ġwharton":7982,"istence":7983,"riers":7984,"rielle":7985,"arde":7986,"Ġplaywright":7987,"Ġ1820":7988,"Ġnationalist":7989,"Ġfought":7990,"Ġcoleman":7991,"Ġprop":7992,"Ġ0000":7993,"resti":7994,"Ġtem":7995,"Ġteen":7996,"Ġtehran":7997,"Ġteksti":7998,"Ġiman":7999,"Ġimran":8000,"Ġbey":8001,"Ġbeathard":8002,"Ġneuf":8003,"uea":8004,"ueger":8005,"uejeraye":8006,"derick":8007,"Ġmarine":8008,"iec":8009,"iej":8010,"shel":8011,"shish":8012,"shav":8013,"shuttleworth":8014,"oux":8015,"udes":8016,"udine":8017,"ballos":8018,"Ġspar":8019,"Ġspace":8020,"Ġlaurie":8021,"ionios":8022,"akin":8023,"akers":8024,"akcÄ±":8025,"Ġcombr":8026,"Ġconor":8027,"Ġconstitu":8028,"illic":8029,"ishna":8030,"Ġnewark":8031,"Ġjob":8032,"ovan":8033,"ovre":8034,"ovaj":8035,"Ġshik":8036,"Ġshiz":8037,"Ġshib":8038,"ickly":8039,"ends":8040,"oper":8041,"opes":8042,"rane":8043,"Ġapart":8044,"Ġapoll":8045,"Ġapost":8046,"avedra":8047,"Ġmehran":8048,"Ġmeeting":8049,"ably":8050,"ables":8051,"abolcs":8052,"ipers":8053,"ipworth":8054,"Ġjana":8055,"Ġjanash":8056,"achev":8057,"Ġ67":8058,"Ġboo":8059,"Ġboog":8060,"ivÃ¢":8061,"soe":8062,"tong":8063,"Ġgohou":8064,"ikyan":8065,"Ġscand":8066,"Ġscotia":8067,"Ġscurry":8068,"Ġmoon":8069,"Ġmoor":8070,"Ġmoen":8071,"Ġmoore":8072,"Ġmoley":8073,"Ġorator":8074,"Ġcarmel":8075,"eco":8076,"Ġprefe":8077,"Ġprecious":8078,"Ġnoel":8079,"Ġnohar":8080,"Ġnothing":8081,"Ġencom":8082,"Ġenergy":8083,"ffman":8084,"ffie":8085,"ograd":8086,"Ġpoly":8087,"astasi":8088,"astricht":8089,"hne":8090,"ughter":8091,"Ġuwe":8092,"Ġurban":8093,"Ġuresti":8094,"angalam":8095,"Ġknud":8096,"Ġengle":8097,"Ġengaged":8098,"Ġcurrentnumber":8099,"Ġpartners":8100,"Ġmandate":8101,"Ġmanier":8102,"Ġmanning":8103,"Ġmanuf":8104,"Ġmanaging":8105,"Ġtit":8106,"Ġtiffany":8107,"Ġtirath":8108,"peror":8109,"izka":8110,"Ġbruins":8111,"Ġbrumm":8112,"Ġparish":8113,"Ġpartiz":8114,"Ġschwart":8115,"Ġscharn":8116,"Ġ81":8117,"Ġ82":8118,"Ġ85":8119,"Ġ88":8120,"Ġ800":8121,"Ġteresa":8122,"sef":8123,"Ġcanucks":8124,"Ġprague":8125,"Ġpritch":8126,"Ġedm":8127,"Ġcollegi":8128,"Ġcollections":8129,"clus":8130,"Ġ106":8131,"urnoy":8132,"Ġcompeting":8133,"Ġcompiling":8134,"Ġ120":8135,"force":8136,"Ġ170":8137,"Ġmining":8138,"Ġmineral":8139,"Ġ91":8140,"Ġ98":8141,"Ġ99":8142,"meth":8143,"Ġsutherland":8144,"Ġihl":8145,"positions":8146,"Ġzen":8147,"Ġzap":8148,"Ġzhi":8149,"Ġzita":8150,"Ġziad":8151,"Ġzangion":8152,"Ġasselin":8153,"Ġsheikh":8154,"1945":8155,"boys":8156,"Ġadap":8157,"Ġadult":8158,"Ġadnan":8159,"Ġfinals":8160,"Ġfranz":8161,"their":8162,"Ġformercoach":8163,"Ġformerpartner":8164,"adeth":8165,"Ġappony":8166,"Ġexistence":8167,"Ġperfe":8168,"Ġpercussion":8169,"Ġfullback":8170,"anning":8171,"Ġ111":8172,"insinger":8173,"Ġusm":8174,"Ġusing":8175,"Ġusually":8176,"Ġusery":8177,"Ġusasz":8178,"Ġnora":8179,"Ġnorman":8180,"Ġbarcel":8181,"Ġgeology":8182,"Ġgeoved":8183,"ajcza":8184,"Ġwarri":8185,"Ġwarburton":8186,"Ġguice":8187,"Ġguide":8188,"Ġguido":8189,"Ġguillermo":8190,"Ġguilty":8191,"Ġcommons":8192,"Ġgerard":8193,"Ã¡Å¡":8194,"Ġsteens":8195,"coughlin":8196,"Ġevgen":8197,"Ġpole":8198,"Ġpoul":8199,"Ġpound":8200,"Ġpoem":8201,"Ġbandleader":8202,"labarri":8203,"Ġcharam":8204,"Ġcharmian":8205,"atie":8206,"Ġgray":8207,"Ġgrendel":8208,"Ġactually":8209,"ledge":8210,"Ġabarca":8211,"Ġcruz":8212,"Ġharris":8213,"Ġharald":8214,"Ġharmon":8215,"Ġsoon":8216,"Ġsolabarri":8217,"bylle":8218,"uthier":8219,"anca":8220,"Ġtrade":8221,"Ġtrustee":8222,"Ġsanter":8223,"Ġsanasy":8224,"Ġblu":8225,"Ġblas":8226,"brian":8227,"tista":8228,"Ġclan":8229,"Ġclifford":8230,"Ġmostly":8231,"Ġmonk":8232,"Ġruse":8233,"Ġruss":8234,"Ġpresidency":8235,"Ġbrace":8236,"Ġbraica":8237,"Ġbravery":8238,"Ġgreene":8239,"llor":8240,"Ġdistinc":8241,"pect":8242,"Ġcrow":8243,"Ġcrown":8244,"2000":8245,"kauf":8246,"Ġinternet":8247,"Ġinternationally":8248,"Ġamoo":8249,"Ġhaico":8250,"Ġstarring":8251,"Ġqual":8252,"Ġquickly":8253,"vention":8254,"Ġgroza":8255,"hlrapp":8256,"ibe":8257,"Ġndong":8258,"Ġjackie":8259,"Ġswitch":8260,"hail":8261,"itia":8262,"Ġpopov":8263,"Ġpublie":8264,"Ġmilitia":8265,"Ġhotel":8266,"Ġresult":8267,"Ġresumed":8268,"Ġfinalyear":8269,"Ġmcintire":8270,"Ġ1874":8271,"Ġ1875":8272,"aula":8273,"Ã¼lker":8274,"Ġoutfielder":8275,"Ġoutstanding":8276,"Ġpatent":8277,"jean":8278,"ukoviÄĩ":8279,"Ġcastonzo":8280,"Ġpriti":8281,"Ġpriidu":8282,"Ġbowring":8283,"Ġfrequently":8284,"Ġconsecu":8285,"Ġsaud":8286,"Ġsaavedra":8287,"Ġsky":8288,"Ġskating":8289,"Ġskills":8290,"Ġskovaj":8291,"Ġsuppl":8292,"Ġcorinth":8293,"Ġdepression":8294,"Ġvalencia":8295,"Ġvaluable":8296,"joart":8297,"Ġmorell":8298,"Ġmorgan":8299,"Ġtrio":8300,"Ġtries":8301,"Ġsigning":8302,"ĠsimiÄĩ":8303,"Ġsimien":8304,"baugh":8305,"Ġperform":8306,"Ġxia":8307,"Ġxingchen":8308,"ĠmaÅĦ":8309,"Ġmaastricht":8310,"Ġshoot":8311,"linghouse":8312,"Ġinstitutions":8313,"racy":8314,"Ġsamir":8315,"Ġberk":8316,"Ġberry":8317,"Ġbelt":8318,"Ġclair":8319,"Ġclavell":8320,"Ġmatsub":8321,"Ġmatthias":8322,"Ġmartine":8323,"Ġtrained":8324,"Ġluo":8325,"Ġluther":8326,"Ġtexans":8327,"Ġdemocracy":8328,"Ġcreating":8329,"ĠÃĵ":8330,"Ġmillar":8331,"Ġmillward":8332,"Ġwebber":8333,"tarescu":8334,"Ġesther":8335,"Ġportugu":8336,"Ġavoid":8337,"Ġmelcher":8338,"Ġholman":8339,"Ġemelin":8340,"Ġemuejeraye":8341,"Ġemperor":8342,"Ġlabels":8343,"before":8344,"project":8345,"risto":8346,"Ġilloul":8347,"Ġfaraliza":8348,"Ġkaretnik":8349,"azzotti":8350,"ÃŃk":8351,"ÃŃost":8352,"Ġchairperson":8353,"iffe":8354,"backs":8355,"Ġslim":8356,"ĠmurÃ§a":8357,"Ġincor":8358,"Ġalleged":8359,"Ġestate":8360,"Ġaccoun":8361,"Ġaccused":8362,"Ġchiefs":8363,"Ġmodels":8364,"Ġdoming":8365,"Ġdomestic":8366,"Ġtreat":8367,"Ġsharma":8368,"Ġprinceton":8369,"Ġvictorian":8370,"Ġtenor":8371,"Ġglou":8372,"Ġappointer":8373,"sued":8374,"suff":8375,"Ġcaus":8376,"Ġcause":8377,"Ġodis":8378,"Ġoperated":8379,"ndio":8380,"Ġbillboard":8381,"Ġmadondo":8382,"Ġwoody":8383,"Ġwoodlands":8384,"Ġjerae":8385,"Ġjeremy":8386,"Ġshortland":8387,"Ġshortstop":8388,"Ġcricketarchive":8389,"Ġsubject":8390,"Ġbalajcza":8391,"Ġceballos":8392,"Ġpankewicz":8393,"Ġpanionios":8394,"Ġmerit":8395,"Ġmerchant":8396,"Ġwesthuiz":8397,"Ġtransport":8398,"Ġgeorgian":8399,"Ġgeorgetown":8400,"inesename":8401,"tivo":8402,"Ġmasoud":8403,"Ġlargest":8404,"Ġ1855":8405,"Ġmalta":8406,"Ġakh":8407,"Ġborja":8408,"Ġborchard":8409,"Ġnbc":8410,"Ġgauss":8411,"Ġgauthier":8412,"Ġplot":8413,"Ġplanned":8414,"ecution":8415,"Ġchristianno":8416,"carr":8417,"ijaya":8418,"Ġqi":8419,"Ġkenny":8420,"Ġlegislature":8421,"Ġsuperliga":8422,"Ġdunav":8423,"Ġjuven":8424,"Ġrevival":8425,"Ġrevolution":8426,"yecto":8427,"Ġburish":8428,"Ġoliver":8429,"Ġbrooks":8430,"werth":8431,"Ġnomura":8432,"Ġlangdon":8433,"ribution":8434,"stein":8435,"Ġtrower":8436,"Ġtroops":8437,"Ġkotham":8438,"general":8439,"mitted":8440,"mitri":8441,"Ġanthology":8442,"Ġanthonis":8443,"Ġgraeme":8444,"Ġdeveloped":8445,"Ġleda":8446,"Ġteaching":8447,"Ġfrederik":8448,"Ġhonorific":8449,"Ġsavitt":8450,"Ġlightning":8451,"Ġremains":8452,"Ġchristina":8453,"Ġphotography":8454,"borg":8455,"Ġchem":8456,"Ġchet":8457,"Ġdecade":8458,"Ġdecades":8459,"Ġkaido":8460,"Ġrealname":8461,"Ġstrate":8462,"Ġboxing":8463,"Ġcornell":8464,"Ġcardiff":8465,"Ġfailure":8466,"Ġtychy":8467,"Ġramazzotti":8468,"landscape":8469,"Ġjeffreys":8470,"Ġsato":8471,"Ġngody":8472,"Ġtalbot":8473,"Ġexecuted":8474,"Ġcompetitions":8475,"Ġsuccessfully":8476,"Ġrobertson":8477,"Ġfifa":8478,"ĠnikÃ§":8479,"Ġandrzej":8480,"Ġkrpey":8481,"Ġkrueger":8482,"Ġviscount":8483,"ÄįÃŃn":8484,"ĠbiukoviÄĩ":8485,"Ġcredits":8486,"Ġgiant":8487,"Ġchapter":8488,"Ġvelox":8489,"Ġrobbie":8490,"Ġrobinson":8491,"Ġgriffith":8492,"Ġbaigor":8493,"Ġcalling":8494,"Ġpenedones":8495,"Ġislamic":8496,"Ġlatusa":8497,"Ġdominik":8498,"Ãºs":8499,"Ġcritical":8500,"Ġghazi":8501,"Ġghalay":8502,"Ġgilgeous":8503,"Ġkuipers":8504,"Ġashin":8505,"Ġashfield":8506,"Ġvasil":8507,"Ġvasily":8508,"Ġvasili":8509,"Ġ1790":8510,"Ġastronaut":8511,"Ġsires":8512,"Ġmachine":8513,"Ġdogg":8514,"chenkov":8515,"Ġwhitt":8516,"Ġwhitlow":8517,"Ġwhitgift":8518,"Ġpractic":8519,"Ġcharacters":8520,"Ġcrime":8521,"Ġpotential":8522,"Ġjakub":8523,"agua":8524,"Ġcheryl":8525,"Ġcherbourg":8526,"Ġprosecution":8527,"Ġprovides":8528,"254":8529,"Ġautry":8530,"Ġbudapest":8531,"Ġcrawford":8532,"Ġfratern":8533,"Ġhopkins":8534,"ĠnÃ©meth":8535,"Ġjonuzi":8536,"Ġestonia":8537,"Ġmathematical":8538,"blue":8539,"ĠfernÃ¡ndez":8540,"Ġpassing":8541,"Ġdickey":8542,"Ġgalloul":8543,"Ġgallantry":8544,"Ġgallinari":8545,"Ġmuseums":8546,"Ġlasttestagainst":8547,"Ġdonaldson":8548,"prizes":8549,"ĠÅł":8550,"ĠÅģÄĻ":8551,"Ġsugimoto":8552,"Ġbonta":8553,"Ġwolfe":8554,"Ġwolfgang":8555,"Ġludwik":8556,"endorfer":8557,"Ġphysician":8558,"holder":8559,"Ġsampo":8560,"Ġbuddy":8561,"Ġbuddhist":8562,"Ġflournoy":8563,"Ġkerr":8564,"Ġkerispatih":8565,"aghuraj":8566,"Ġlebanese":8567,"Ġpromoted":8568,"iemcz":8569,"Ġadvisor":8570,"grell":8571,"Ġilleg":8572,"throp":8573,"Ġthorpe":8574,"Ġhorwitz":8575,"Ġhurst":8576,"Ġlandmark":8577,"Ġrespectively":8578,"Ġchambers":8579,"Ġvenice":8580,"Ġbeautiful":8581,"Ġconcern":8582,"1963":8583,"Ġodidebutdate":8584,"Ġodidebutyear":8585,"Ġodidebutagainst":8586,"Ġivanovo":8587,"ĠivanoviÄĩ":8588,"Ġcritically":8589,"Ġpsych":8590,"elected":8591,"Ġucla":8592,"Ġhindmarsh":8593,"charles":8594,"Ġvideos":8595,"Ġleslie":8596,"Ġspringfield":8597,"Ġsaxophone":8598,"Ġmultiple":8599,"jiang":8600,"yiÄŁ":8601,"Ã«l":8602,"Ġbakhit":8603,"Ġfusia":8604,"Ġfusari":8605,"Ġfisher":8606,"Ġpossible":8607,"Ġmladenov":8608,"Ġoscar":8609,"Ġtasco":8610,"Ġtattarescu":8611,"Ġgrenadier":8612,"itusi":8613,"Ġlutter":8614,"Ġlutricia":8615,"Ġkessel":8616,"Ġattempted":8617,"Ġattempts":8618,"boney":8619,"luo":8620,"yuki":8621,"Ã¯na":8622,"Ġultim":8623,"Ġbirken":8624,"Ġcerem":8625,"Ġpavel":8626,"Ġancest":8627,"Ġklausen":8628,"Ġrickford":8629,"Ġyankee":8630,"Ġviews":8631,"Ġfoote":8632,"Ġfootitt":8633,"Ġshirley":8634,"Ġappeal":8635,"country":8636,"Ġabbas":8637,"Ġabbey":8638,"Ġpublisher":8639,"Ġhistorical":8640,"Ġtestdebutagainst":8641,"ĠpetroviÄĩ":8642,"graefe":8643,"janaa":8644,"lications":8645,"Ġiafd":8646,"Ġumpire":8647,"Ġsedki":8648,"Ġbotan":8649,"Ġfleur":8650,"Ġwakayama":8651,"Ġwakamura":8652,"Ġnygaard":8653,"Ġnailab":8654,"Ġjessica":8655,"Ġgunpowder":8656,"Ġgreece":8657,"Ġtokpah":8658,"ĠchiÅŁ":8659,"Ġrodgers":8660,"Ġtelugu":8661,"Ġbeginning":8662,"abrizio":8663,"Ġparalympics":8664,"Ġgenerally":8665,"Ġproducts":8666,"Ġaleksey":8667,"Ġaleksandar":8668,"onymous":8669,"Ġinterests":8670,"Ġabdullah":8671,"midt":8672,"pankewicz":8673,"Ã¨re":8674,"Ã¸rge":8675,"Ġbaiynd":8676,"Ġthurston":8677,"ĠpakhalÃ©":8678,"Ġinitially":8679,"espncricinfo":8680,"Ġtushar":8681,"Ġgaslight":8682,"ĠgÃ¶rÃ¶":8683,"Ġmechanics":8684,"Ġmobile":8685,"Ġ1398":8686,"Ġregarded":8687,"Ġannounced":8688,"Ġalexandra":8689,"Ġmcginnis":8690,"Ġadvocate":8691,"Ġjohannes":8692,"Ġpsychiatry":8693,"Ġponti":8694,"Ġdinos":8695,"Ġnimrod":8696,"Ġlankan":8697,"Ġrubiano":8698,"Ġtouchdown":8699,"Ġchernomorets":8700,"Ġrodriguez":8701,"Ġabolished":8702,"Ġabramov":8703,"Ġcontributing":8704,"Ġcommunications":8705,"Ġmikecz":8706,"Ġkeyboardist":8707,"Ġvladimir":8708,"kaluke":8709,"pected":8710,"Ġthongkr":8711,"Ġfactory":8712,"Ġpossner":8713,"ĠmÃ¼ggen":8714,"techn":8715,"Ġhilden":8716,"Ġhutchence":8717,"Ġgorbun":8718,"ĠchÃ©rif":8719,"Ġshapiro":8720,"Ġ6495":8721,"Ġcanonica":8722,"Ġapproach":8723,"Ġextensively":8724,"alexander":8725,"Ġreserve":8726,"Ġjewish":8727,"Ġcorrespondent":8728,"Ġdeportivo":8729,"Ġmaccabi":8730,"Ġkrasnozhan":8731,"Ġmuneyasu":8732,"Ġdifferent":8733,"Ġresponsible":8734,"ĠÃĸzyiÄŁ":8735,"Ġunsuccessfully":8736,"camm":8737,"currently":8738,"frederick":8739,"luca":8740,"Ġsfsr":8741,"Ġsoprano":8742,"Ġsophie":8743,"Ġboscaw":8744,"Ġthrone":8745,"Ġmustafa":8746,"Ġwanggai":8747,"Ġhickman":8748,"Ġhorses":8749,"Ġdimitar":8750,"Ġtaiwan":8751,"Ġlynn":8752,"Ġdeclared":8753,"Ġkreuz":8754,"Ġkashakashvili":8755,"Ġstandard":8756,"Ġlefebvre":8757,"Ġbeauty":8758,"Ġjoyner":8759,"Ġmethodist":8760,"Ġlothian":8761,"Ġresignation":8762,"Ġcyrillic":8763,"Ġexperience":8764,"Ġsatyendra":8765,"Äįiar":8766,"Ġsorokin":8767,"Ġcfbdwid":8768,"Ġtasmania":8769,"Ġkazakhstan":8770,"ĠkukÃ«si":8771,"century":8772,"rlÄĥ":8773,"Ġrbi":8774,"Ġsudan":8775,"Ġsacks":8776,"Ġsadeghi":8777,"Ġbentley":8778,"Ġbashaud":8779,"Ġcnn":8780,"Ġcamilo":8781,"Ġoziemcz":8782,"Ġhousing":8783,"Ġdresden":8784,"Ġdedicated":8785,"Ġjagodina":8786,"Ġgabon":8787,"Ġlusikyan":8788,"Ġresources":8789,"Ġartistic":8790,"Ġrafael":8791,"Ġisaac":8792,"Ġyamada":8793,"Ġheidelbaugh":8794,"Ġunexpected":8795,"Ġvidmar":8796,"Ġlecturer":8797,"Ġspirit":8798,"Ġcolombo":8799,"Ġmegadeth":8800,"Ġmohiuddin":8801,"Ġprussia":8802,"Ġgenocide":8803,"Ġafghanistan":8804,"Ġsteingross":8805,"ĠstehlÃŃk":8806,"Ġsanjjanaa":8807,"Ġpetersburg":8808,"Ġblitzkrieg":8809,"ĠamÃ©rica":8810,"hausen":8811,"Ġsymbol":8812,"Ġsupported":8813,"Ġmoriarty":8814,"Ġmagomedov":8815,"Ġcelebr":8816,"Ġraiders":8817,"Ġhawaii":8818,"katalakshamma":8819,"Ġwimbledon":8820,"Ġdagestan":8821,"ĠsempoliÅĦski":8822,"Ġenvironmental":8823,"gÃ¼strow":8824,"hivamsa":8825,"jpeg":8826,"joseph":8827,"lshchik":8828,"nieszka":8829,"æĸĩ":8830,"Ġordained":8831,"Ġessex":8832,"ĩÄ±nar":8833,"Ġamezquita":8834,"Ġalessandro":8835,"Ġauxerre":8836,"ĠbardakcÄ±":8837,"Ġbiondetti":8838,"Ġbledsoe":8839,"Ġbautista":8840,"Ġbakshin":8841,"Ġcesena":8842,"Ġfrost":8843,"Ġpendleton":8844,"Ġpelletier":8845,"Ġmorning":8846,"Ġmysore":8847,"Ġmitev":8848,"Ġmgangira":8849,"Ġwaffen":8850,"Ġtheuerkauf":8851,"Ġhovlik":8852,"Ġhurrican":8853,"Ġhorta":8854,"Ġhossain":8855,"ĠhÃ¶grell":8856,"ĠhrnÄįiar":8857,"Ġhvidovre":8858,"Ġniedling":8859,"Ġnakhon":8860,"ĠtrenÄįÃŃn":8861,"Ġtavori":8862,"Ġgolfer":8863,"ĠgÃ¢rlÄĥ":8864,"chapman":8865,"urciu":8866,"Ġkovachev":8867,"ĠkÃ¼laots":8868,"Ġkulikova":8869,"Ġremembered":8870,"heorghe":8871,"Ġratchasima":8872,"Ġforensic":8873,"Ġisaychenko":8874,"Ġyarmouth":8875,"Ġchennai":8876,"Ġvielwerth":8877,"Ġlegeay":8878,"athalingam":8879,"Ġtekstilshchik":8880,"Ġneufeld":8881,"Ġcombrinck":8882,"Ġshikurin":8883,"Ġshizuoka":8884,"Ġshibli":8885,"Ġjanashia":8886,"Ġboogie":8887,"ivÃ¢ndio":8888,"Ġprefecture":8889,"Ġnoharathalingam":8890,"Ġencompass":8891,"astasiia":8892,"Ġmanufact":8893,"Ġpartizan":8894,"Ġschwartz":8895,"Ġpritchard":8896,"Ġcollegiate":8897,"Ġzhiyu":8898,"Ġzangionov":8899,"Ġapponyi":8900,"Ġbarcelona":8901,"Ġgeovedi":8902,"Ġsteensel":8903,"Ġsolabarrieta":8904,"Ã¼lkerim":8905,"Ġskovajsa":8906,"Ġsupplies":8907,"ĠmaÅĦka":8908,"Ġmatsubara":8909,"Ġportuguese":8910,"Ġmelchert":8911,"Ġkaretnikov":8912,"Ġwesthuizen":8913,"Ġkothamangalam":8914,"ĠnikÃ§i":8915,"Ġkrpeyan":8916,"Ġbaigorria":8917,"Ġghalayni":8918,"Ġfraternity":8919,"ĠÅģÄĻcz":8920,"ĠchiÅŁinÄĥu":8921,"ĠgÃ¶rÃ¶g":8922,"Ġthongkruea":8923,"ĠmÃ¼ggenburg":8924,"Ġgorbunova":8925,"ĠÃĸzyiÄŁit":8926,"Ġboscawen":8927,"Ġoziemczuk":8928,"249":8929,"60":8930,"65":8931,"ax":8932,"aum":8933,"aend":8934,"aaki":8935,"aÃ«l":8936,"bn":8937,"bla":8938,"bed":8939,"bir":8940,"bri":8941,"bill":8942,"bÃ©":8943,"bah":8944,"bÃ¡":8945,"bai":8946,"bha":8947,"bates":8948,"bbc":8949,"bient":8950,"beargarden":8951,"cro":8952,"cond":8953,"cys":8954,"dis":8955,"dam":8956,"del":8957,"due":8958,"dong":8959,"dÃ¶n":8960,"eman":8961,"eason":8962,"ease":8963,"fle":8964,"fus":8965,"fong":8966,"fred":8967,"face":8968,"fldrafted":8969,"gs":8970,"gel":8971,"gate":8972,"got":8973,"gid":8974,"gies":8975,"gure":8976,"geral":8977,"gib":8978,"gets":8979,"gbakoto":8980,"hall":8981,"iation":8982,"ials":8983,"iled":8984,"ihiro":8985,"jor":8986,"jang":8987,"jme":8988,"jubl":8989,"jann":8990,"jaya":8991,"ky":8992,"kow":8993,"kang":8994,"kala":8995,"lord":8996,"lop":8997,"last":8998,"like":8999,"lantz":9000,"lodar":9001,"mill":9002,"mke":9003,"mira":9004,"miss":9005,"mission":9006,"nbar":9007,"oi":9008,"ound":9009,"obo":9010,"oby":9011,"oonist":9012,"oubles":9013,"pir":9014,"pac":9015,"pine":9016,"publ":9017,"plo":9018,"ptions":9019,"pirelja":9020,"rs":9021,"rup":9022,"rze":9023,"rine":9024,"sman":9025,"sign":9026,"subl":9027,"sains":9028,"smith":9029,"tman":9030,"tak":9031,"tens":9032,"tunk":9033,"uted":9034,"umer":9035,"uder":9036,"ucc":9037,"uki":9038,"uana":9039,"vas":9040,"vun":9041,"vik":9042,"vince":9043,"vko":9044,"wes":9045,"wom":9046,"wald":9047,"wahls":9048,"wijaya":9049,"xton":9050,"yevich":9051,"zon":9052,"zana":9053,"£eanu":9054,"°Æ¡":9055,"Ã¥":9056,"ÃŁ":9057,"Å£eanu":9058,"Æ°Æ¡":9059,"Ð¼":9060,"Ð¾":9061,"×Ļ":9062,"Ø±":9063,"Ø³":9064,"à¯":9065,"àµ":9066,"ä»":9067,"Ġç":9068,"ĠæĿ":9069,"ĲÆ¡":9070,"Ġaus":9071,"Ġaub":9072,"Ġauth":9073,"Ġaval":9074,"Ġayan":9075,"Ġaziz":9076,"erah":9077,"then":9078,"thorn":9079,"three":9080,"inath":9081,"inrich":9082,"iniem":9083,"ont":9084,"onan":9085,"onent":9086,"onation":9087,"onid":9088,"ansion":9089,"anche":9090,"anthrop":9091,"Ġsg":9092,"Ġsie":9093,"Ġsession":9094,"ĠsÃ¡":9095,"Ġslo":9096,"Ġski":9097,"Ġsib":9098,"Ġsau":9099,"Ġslav":9100,"Ġsaye":9101,"oration":9102,"oros":9103,"Ġbup":9104,"Ġbold":9105,"Ġbally":9106,"Ġbinning":9107,"Ġbless":9108,"Ġbicy":9109,"tif":9110,"tirb":9111,"tivis":9112,"timo":9113,"tiations":9114,"arus":9115,"aries":9116,"arthe":9117,"arinen":9118,"Ġcw":9119,"Ġced":9120,"Ġcut":9121,"Ġcust":9122,"Ġcial":9123,"Ġcris":9124,"Ġcates":9125,"Ġcatherine":9126,"enve":9127,"enico":9128,"enkov":9129,"Ġthre":9130,"Ġthani":9131,"Ġthink":9132,"Ġthayer":9133,"Ġfi":9134,"Ġfas":9135,"Ġfigh":9136,"Ġfra":9137,"Ġfion":9138,"Ġfab":9139,"Ġfell":9140,"Ġfai":9141,"Ġfuk":9142,"Ġfoss":9143,"Ġfried":9144,"Ġfired":9145,"Ġfaye":9146,"Ġfener":9147,"Ġfencing":9148,"Ġfjoart":9149,"Ġfabrizio":9150,"alis":9151,"alot":9152,"alts":9153,"alem":9154,"alma":9155,"Ġpd":9156,"Ġpi":9157,"Ġpx":9158,"Ġple":9159,"Ġpes":9160,"Ġpath":9161,"Ġpork":9162,"Ġpip":9163,"Ġpne":9164,"Ġpiet":9165,"Ġpune":9166,"Ġpiss":9167,"Ġpinch":9168,"Ġpomer":9169,"Ġpasha":9170,"lesi":9171,"lets":9172,"Ġmol":9173,"Ġmist":9174,"Ġmou":9175,"Ġmud":9176,"Ġmort":9177,"Ġmati":9178,"Ġmainst":9179,"ĠmÃ¤":9180,"Ġmignon":9181,"Ġmumon":9182,"Ġmtv":9183,"Ġwag":9184,"Ġword":9185,"Ġwish":9186,"Ġwong":9187,"Ġwonda":9188,"Ġwenlan":9189,"Ġwetton":9190,"tell":9191,"tefisk":9192,"Ġtheore":9193,"ises":9194,"isbane":9195,"isiak":9196,"isadr":9197,"Ġomer":9198,"Ġovers":9199,"Ġoma":9200,"Ġoko":9201,"Ġoverse":9202,"Ġhid":9203,"Ġhers":9204,"Ġhend":9205,"Ġhund":9206,"Ġhague":9207,"Ġhsb":9208,"Ġhyo":9209,"Ġhired":9210,"Ġhinch":9211,"Ġhalse":9212,"Ġhjk":9213,"Ġhristo":9214,"relig":9215,"Ġdil":9216,"Ġdad":9217,"Ġdum":9218,"Ġdah":9219,"Ġdron":9220,"Ġdaly":9221,"Ġdual":9222,"Ġdlam":9223,"ĠdÃº":9224,"Ġdamon":9225,"Ġdream":9226,"ĠdvoÅĻÃ¡k":9227,"Ġdmitri":9228,"ĠdÃ¸rge":9229,"ĠdÆ°Æ¡":9230,"Ġnj":9231,"Ġnoc":9232,"Ġnip":9233,"Ġnature":9234,"Ġnamo":9235,"Ġnavy":9236,"Ġnancy":9237,"asure":9238,"aspor":9239,"Ġink":9240,"Ġint":9241,"Ġinga":9242,"Ġintel":9243,"amarca":9244,"Ġante":9245,"Ġanug":9246,"Ġanci":9247,"Ġanastasiia":9248,"ested":9249,"esovÃ¡":9250,"lau":9251,"lain":9252,"lage":9253,"ict":9254,"icide":9255,"edu":9256,"edis":9257,"edonia":9258,"rop":9259,"roke":9260,"irie":9261,"Ġtold":9262,"Ġtae":9263,"Ġtds":9264,"Ġtannone":9265,"Ġtagua":9266,"Ġ205":9267,"Ġjard":9268,"Ġjum":9269,"Ġjav":9270,"Ġjamal":9271,"Ġjavier":9272,"untu":9273,"unci":9274,"Ġgif":9275,"Ġgather":9276,"ĠgÃ¼":9277,"Ġgama":9278,"Ġgabri":9279,"Ġgandy":9280,"Ġgyeon":9281,"Ġgillian":9282,"Ġgheorghe":9283,"elizabeth":9284,"usalem":9285,"itant":9286,"ches":9287,"ching":9288,"chad":9289,"chinesename":9290,"olÃ©":9291,"ilia":9292,"illy":9293,"ilhach":9294,"urd":9295,"urst":9296,"uries":9297,"uranga":9298,"atu":9299,"atti":9300,"atrian":9301,"Ġlich":9302,"Ġlund":9303,"Ġllo":9304,"Ġlose":9305,"Ġlds":9306,"Ġlopes":9307,"Ġljubl":9308,"beri":9309,"bern":9310,"igarh":9311,"Ġdevil":9312,"Ġdetec":9313,"Ġkal":9314,"Ġkle":9315,"Ġkig":9316,"Ġkup":9317,"Ġkamil":9318,"Ġkira":9319,"Ġkhy":9320,"Ġkader":9321,"Ġkamal":9322,"Ġkendall":9323,"Ġkedd":9324,"Ġkatie":9325,"Ġrex":9326,"Ġreyes":9327,"Ġreeder":9328,"Ġreelection":9329,"Ġark":9330,"Ġarri":9331,"Ġarmed":9332,"Ġaritz":9333,"Ġarena":9334,"hei":9335,"hew":9336,"sta":9337,"stas":9338,"staheli":9339,"status":9340,"Ġri":9341,"Ġrar":9342,"Ġric":9343,"Ġria":9344,"Ġrist":9345,"Ġrican":9346,"Ġrain":9347,"Ġrend":9348,"Ġrenn":9349,"Ġrca":9350,"Ġrafat":9351,"ĠrÃ¡k":9352,"Ġrival":9353,"Ġrising":9354,"Ġrusty":9355,"Ġrighteous":9356,"Ġraghuraj":9357,"Ġforet":9358,"Ġforty":9359,"Ġforms":9360,"adam":9361,"aded":9362,"adow":9363,"adav":9364,"adab":9365,"Ġtoo":9366,"Ġtoured":9367,"siys":9368,"sibil":9369,"imin":9370,"imar":9371,"imli":9372,"imdb":9373,"Ġismail":9374,"terian":9375,"andan":9376,"andace":9377,"tlett":9378,"Ġston":9379,"Ġstans":9380,"Ġya":9381,"Ġyr":9382,"Ġyuri":9383,"Ġyagi":9384,"Ġyeni":9385,"Ġyosh":9386,"Ġalum":9387,"Ġalph":9388,"Ġalves":9389,"Ġalisa":9390,"Ġalonso":9391,"Ġaloi":9392,"Ġalpine":9393,"Ġaligarh":9394,"play":9395,"titled":9396,"Ġeac":9397,"Ġeigh":9398,"Ġemin":9399,"Ġeamon":9400,"Ġegger":9401,"Ġeakin":9402,"Ġchor":9403,"Ġchen":9404,"Ġchun":9405,"Ġchul":9406,"Ġcheshire":9407,"Ġchatrian":9408,"Ġheinrich":9409,"aco":9410,"Ġasst":9411,"Ġasunci":9412,"ottes":9413,"Ġunde":9414,"ided":9415,"aphic":9416,"Ġonline":9417,"Ġondar":9418,"Ġvs":9419,"Ġvit":9420,"Ġvav":9421,"Ġvog":9422,"Ġvino":9423,"Ġvoting":9424,"ayr":9425,"ayuki":9426,"utn":9427,"utov":9428,"tedt":9429,"ows":9430,"Ġatar":9431,"Ġsea":9432,"Ġsean":9433,"Ġseong":9434,"Ġseah":9435,"Ġleo":9436,"Ġleaf":9437,"Ġleamon":9438,"Ġlevert":9439,"atha":9440,"athi":9441,"upp":9442,"ardino":9443,"rah":9444,"race":9445,"rainian":9446,"lyse":9447,"Ġ1822":9448,"umble":9449,"Ġroch":9450,"Ġroom":9451,"Ġroald":9452,"Ġrohan":9453,"Ġrosen":9454,"ĠuniÃ£o":9455,"Ġnationals":9456,"Ġ3000":9457,"Ġcoat":9458,"Ġcook":9459,"Ġcoley":9460,"Ġcoyo":9461,"Ġproteam":9462,"Ġprocess":9463,"Ġproyecto":9464,"geme":9465,"Ġtelec":9466,"Ġimpro":9467,"ustina":9468,"oca":9469,"Ġbeaud":9470,"Ġnego":9471,"Ġnegro":9472,"Ġneilson":9473,"Ġnejme":9474,"Ġmarian":9475,"Ġmarion":9476,"Ġmarines":9477,"Ġmariners":9478,"sharon":9479,"shrine":9480,"outier":9481,"cca":9482,"ccane":9483,"Ġspa":9484,"Ġspending":9485,"Ġlad":9486,"Ġlazar":9487,"Ġlazio":9488,"Ġlaunch":9489,"ĠlaÃ¯d":9490,"aint":9491,"ordy":9492,"Ġcombin":9493,"Ġconclus":9494,"ishan":9495,"ifudd":9496,"Ġnewell":9497,"Ġjoan":9498,"ĠjovetiÄĩ":9499,"ovac":9500,"ovna":9501,"acki":9502,"Ġsha":9503,"Ġshut":9504,"Ġshak":9505,"Ġshank":9506,"Ġshimi":9507,"Ġshadow":9508,"endoubles":9509,"opinath":9510,"opendoubles":9511,"rance":9512,"Ġcolony":9513,"Ġcolima":9514,"Ġcollage":9515,"ously":9516,"Ġcapable":9517,"oda":9518,"odidate":9519,"ebe":9520,"Ġmemo":9521,"ryu":9522,"ipo":9523,"Ġjang":9524,"Ġ68":9525,"Ġ69":9526,"Ġserrano":9527,"Ġbojan":9528,"Ġbouglas":9529,"Ġmayumi":9530,"Ġ52":9531,"Ġ57":9532,"Ġgoes":9533,"Ġgoing":9534,"iko":9535,"osiem":9536,"undi":9537,"Ġscrum":9538,"Ġscanlan":9539,"Ġscardino":9540,"Ġmoz":9541,"Ġmotion":9542,"Ġmoak":9543,"Ġmohand":9544,"Ġmount":9545,"Ġortman":9546,"Ġcaron":9547,"Ġcarry":9548,"Ġcarmen":9549,"ection":9550,"ective":9551,"ecially":9552,"Ġhasler":9553,"emi":9554,"emat":9555,"emplo":9556,"Ġprec":9557,"Ġenlisted":9558,"leskÃ¡":9559,"oked":9560,"okip":9561,"Ġrecurr":9562,"inee":9563,"orevna":9564,"Ġjulie":9565,"Ġpolo":9566,"Ġjunction":9567,"astart":9568,"anty":9569,"Ġherly":9570,"Ġhershel":9571,"rennan":9572,"asselin":9573,"Ġengeld":9574,"Ġmanito":9575,"Ġmanhat":9576,"Ġtil":9577,"Ġtiras":9578,"perry":9579,"Ġbras":9580,"Ġbramble":9581,"Ġbrisbane":9582,"Ġparamo":9583,"Ġschuen":9584,"Ġschmidt":9585,"Ġteamed":9586,"Ġ86":9587,"Ġagnieszka":9588,"Ġphd":9589,"Ġphone":9590,"ldÄ±":9591,"sela":9592,"Ġedvin":9593,"Ġediting":9594,"ĠedivÃ¢ndio":9595,"Ġsingers":9596,"cliffe":9597,"Ġ121":9598,"Ġ1780":9599,"Ġ1787":9600,"max":9601,"Ġ1530":9602,"Ġ1586":9603,"Ġminutes":9604,"ignant":9605,"Ġrepe":9606,"Ġ95":9607,"Ġ96":9608,"Ġ900":9609,"Ġsuet":9610,"Ġgenres":9611,"ashi":9612,"ashen":9613,"ashlie":9614,"ĠzÃ¡":9615,"Ġzvez":9616,"Ġworth":9617,"Ġworanat":9618,"Ġworcestershire":9619,"sheffield":9620,"1989":9621,"Ġterms":9622,"Ġadalberto":9623,"Ġworkshop":9624,"Ġfrancois":9625,"Ġ165":9626,"Ġappl":9627,"Ġappears":9628,"Ġapplications":9629,"Ġexam":9630,"Ġexchan":9631,"Ġperper":9632,"ilde":9633,"Ġbroke":9634,"Ġbrody":9635,"tual":9636,"Ġacid":9637,"Ġacost":9638,"ĠacÃ¡cio":9639,"Ġsouthwest":9640,"Ġtwisel":9641,"Ġbases":9642,"Ġpolitics":9643,"annah":9644,"Ġcalvin":9645,"Ġcaledonia":9646,"keley":9647,"Ġusman":9648,"Ġnorberg":9649,"Ġbari":9650,"Ġbarros":9651,"Ġbarbar":9652,"ĠbarrÃ©":9653,"Ġbartlett":9654,"Ġgeological":9655,"ajevo":9656,"Ġwarner":9657,"Ġguang":9658,"Ġguerre":9659,"Ġ1418":9660,"Ġ1416":9661,"Ġoffered":9662,"Ġstep":9663,"Ġsteffie":9664,"aitis":9665,"encies":9666,"cote":9667,"umberland":9668,"maria":9669,"Ġpoignant":9670,"spe":9671,"labha":9672,"Ġcharity":9673,"Ġcharley":9674,"Ġstaten":9675,"rising":9676,"ĠgrÃ¶n":9677,"Ġgrims":9678,"Ġgrgure":9679,"Ġgraphic":9680,"unga":9681,"Ġsecure":9682,"hammed":9683,"Ġabazi":9684,"Ġabreu":9685,"Ġcrandon":9686,"neur":9687,"Ġharbour":9688,"Ġelis":9689,"Ġelite":9690,"Ġeloff":9691,"Ġelba":9692,"Ġellyse":9693,"Ġdavit":9694,"Ġdavison":9695,"Ġwonder":9696,"Ġsucci":9697,"byterian":9698,"Ġchildhood":9699,"Ġlawsuit":9700,"Ġearle":9701,"Ġearning":9702,"Ġtriath":9703,"Ġpeleuli":9704,"Ġblind":9705,"Ġblida":9706,"Ġproduce":9707,"ttenham":9708,"Ġclive":9709,"Ġclark":9710,"Ġcloutier":9711,"Ġkings":9712,"Ġkingstown":9713,"ensor":9714,"Ġyearpro":9715,"Ġbraves":9716,"ologian":9717,"Ġmichel":9718,"Ġdistance":9719,"Ġcroix":9720,"Ġoverturn":9721,"2002":9722,"Ġdirectly":9723,"kerios":9724,"Ġamor":9725,"Ġamass":9726,"Ġhao":9727,"Ġhaayer":9728,"Ġhaokip":9729,"Ġstara":9730,"Ġstarter":9731,"gansk":9732,"iously":9733,"Ġdoug":9734,"ilesh":9735,"Ġquorum":9736,"Ġlastodidate":9737,"Ġactresses":9738,"Ġgrow":9739,"Ġgrowing":9740,"iba":9741,"Ġalbion":9742,"Ġregional":9743,"Ġruan":9744,"Ġjackets":9745,"Ġjackiem":9746,"Ġannenkov":9747,"decwin":9748,"decloss":9749,"Ġauthorities":9750,"Ġseneg":9751,"Ġflash":9752,"Ġwald":9753,"Ġwaltham":9754,"Ġdisney":9755,"Ġdisease":9756,"Ġmilinko":9757,"Ġhob":9758,"Ġhour":9759,"Ġhoffman":9760,"death":9761,"degh":9762,"Ġolympiad":9763,"evac":9764,"Ġweller":9765,"Ġmcdowell":9766,"Ġmcmanus":9767,"Ġseconds":9768,"Ġjeannette":9769,"Ġdemo":9770,"Ġlegacy":9771,"Ġ1872":9772,"Ã³ir":9773,"Ã³ra":9774,"Ġbuchan":9775,"Ġbuccane":9776,"Ġpattern":9777,"Ġpatena":9778,"Ġpatrich":9779,"Ġpatricia":9780,"Ġstudent":9781,"Ġstudents":9782,"Ġstudying":9783,"Ġ1885":9784,"Ġ1887":9785,"Ġ1889":9786,"jeon":9787,"Ġcasas":9788,"Ġprizes":9789,"Ġhelena":9790,"Ġhelmke":9791,"Ġscotts":9792,"Ġfeel":9793,"Ġfeinsinger":9794,"Ġfieldgoals":9795,"Ġmetz":9796,"Ġwestside":9797,"Ġwestminster":9798,"lbaum":9799,"naud":9800,"Ġconsec":9801,"mounce":9802,"mohammed":9803,"Ġsaifudd":9804,"Ġskier":9805,"Ġskulls":9806,"Ġskipworth":9807,"itarian":9808,"Ġresiding":9809,"Ġphilanthrop":9810,"Ġcoroner":9811,"Ġyoungest":9812,"eppe":9813,"epolis":9814,"Ġdepalma":9815,"Ġtours":9816,"ksson":9817,"lines":9818,"Ġwashburn":9819,"Ġfoundations":9820,"Ġreceiver":9821,"Ġreceptions":9822,"Ġtried":9823,"Ġtrials":9824,"Ġtriple":9825,"ĠsimÃ³n":9826,"Ġdanial":9827,"Ġdentist":9828,"agoza":9829,"bao":9830,"Ġperforms":9831,"Ġxie":9832,"Ġcamera":9833,"Ġmaiden":9834,"Ã¶l":9835,"Ġinterred":9836,"note":9837,"notes":9838,"noÅ¡":9839,"racted":9840,"Ġsamuel":9841,"Ġsamoa":9842,"Ġbert":9843,"Ġbertr":9844,"Ġberoe":9845,"Ġberkeley":9846,"Ġbelle":9847,"Ġbelgian":9848,"Ġbelarus":9849,"Ġclaudine":9850,"Ġpainted":9851,"Ġmattar":9852,"Ġtraff":9853,"Ġlula":9854,"Ġluke":9855,"Ġlutefisk":9856,"Ġtext":9857,"Ġmayoral":9858,"four":9859,"founded":9860,"Ġcrewe":9861,"isms":9862,"ĠÃľmit":9863,"ĠÃĩÄ±nar":9864,"Ġbreast":9865,"Ġbreeder":9866,"Ġbrewers":9867,"Ġdelmore":9868,"Ġporto":9869,"Ġlibert":9870,"Ġbattlefield":9871,"Ġaveraging":9872,"Ġmelton":9873,"Ġmelody":9874,"Ġerick":9875,"Ġcyrielle":9876,"Ġhonour":9877,"Ġhonours":9878,"itski":9879,"Ġemigrated":9880,"Ġlabrie":9881,"begansk":9882,"proyears":9883,"proclubs":9884,"prowins":9885,"province":9886,"tinari":9887,"Ġsomewh":9888,"unders":9889,"Ġfarnell":9890,"Ġfarrell":9891,"Ġnovoros":9892,"Ġnovitski":9893,"Ġkarnat":9894,"Ġvirk":9895,"Ġromanian":9896,"ÃŃpero":9897,"Ġowned":9898,"Ġeponymous":9899,"Ġboards":9900,"Ġslow":9901,"Ġslovakia":9902,"Ġslouk":9903,"Ġmurdo":9904,"Ġmurunga":9905,"Ġgrandchild":9906,"Ġdrag":9907,"Ġeleanor":9908,"Ġrelation":9909,"Ġprogressed":9910,"Ġsharks":9911,"Ġvictories":9912,"mente":9913,"Ġverde":9914,"Ġgloria":9915,"Ġ1805":9916,"Ġappointment":9917,"Ġathens":9918,"Ġbeng":9919,"Ġbench":9920,"Ġbenedic":9921,"Ġcaen":9922,"Ġmoving":9923,"Ġukrainian":9924,"Ġblackman":9925,"obstad":9926,"oboda":9927,"Ġbillie":9928,"Ġbillion":9929,"Ġmadhop":9930,"Ġmikee":9931,"Ġwoodward":9932,"Ġangolan":9933,"Ġjerome":9934,"Ġjerusalem":9935,"Ġshortly":9936,"Ġcolumnist":9937,"Ġsocialist":9938,"Ġparliamentary":9939,"borne":9940,"irovich":9941,"Ġceleste":9942,"Ġpanthers":9943,"Ġmerz":9944,"Ġnowacki":9945,"Ġthroughout":9946,"Ġhamburg":9947,"Ġryd":9948,"Ġvoices":9949,"1995":9950,"Ġtechniques":9951,"Ġbayne":9952,"tivals":9953,"Ġmasaaki":9954,"Ġraces":9955,"Ġraced":9956,"Ġ1850":9957,"Ġmotherwell":9958,"Ġathlete":9959,"mingham":9960,"Ġivor":9961,"Ġpastteams":9962,"Ġmoshe":9963,"Ġmoskaluke":9964,"Ġtakashi":9965,"Ġ1831":9966,"Ġasif":9967,"Ġasimov":9968,"Ġborder":9969,"Ġmyc":9970,"Ġmyr":9971,"Ġgaizka":9972,"elphonse":9973,"Ġdevos":9974,"Ġpeterson":9975,"world":9976,"Ġpalat":9977,"Ġpalmer":9978,"Ġpalace":9979,"Ġmenkerios":9980,"Ġhalvor":9981,"Ġjacoby":9982,"Ġislanders":9983,"Ġdraftedyear":9984,"Ġdraftedround":9985,"Ġchristiana":9986,"draw":9987,"dravko":9988,"henge":9989,"henry":9990,"Ġqing":9991,"Ġqian":9992,"Ġfestivals":9993,"Ġmacy":9994,"Ġmaciej":9995,"Ġrapper":9996,"Ġphysical":9997,"Ġlegislation":9998,"lieutenant":9999,"richard":10000,"Ġfigue":10001,"Ġfiggeme":10002,"Ġdunlop":10003,"Ġjournalists":10004,"Ġburied":10005,"Ġbulwell":10006,"ength":10007,"Ġolson":10008,"Ġdarren":10009,"Ġdarcys":10010,"Ġstephan":10011,"Ġgraduating":10012,"werin":10013,"Ġsett":10014,"Ġsetting":10015,"Ġfellowship":10016,"Ġlieth":10017,"Ġlangford":10018,"Ġlangaitis":10019,"steven":10020,"Ġsomen":10021,"Ġduties":10022,"Ġdurban":10023,"Ġnatal":10024,"Ġtroy":10025,"Ġkostas":10026,"Ġcaroline":10027,"Ġnotableworks":10028,"Ġpopularly":10029,"warren":10030,"Ġpettinari":10031,"Ġobtained":10032,"Ġtax":10033,"ĠtaÃ¯na":10034,"Ġtauranga":10035,"Ġdeveloping":10036,"Ġteaches":10037,"Ġhonored":10038,"Ġlorton":10039,"Ġlorraine":10040,"Ġkeep":10041,"Ġvarna":10042,"ospalot":10043,"Ġphotograph":10044,"Ã¤n":10045,"Ġpresnell":10046,"Ġpreseason":10047,"Ġrealism":10048,"Ġrivera":10049,"Ġstrugg":10050,"Ġstanmore":10051,"Ġ1842":10052,"Ġfounders":10053,"Ġbradfield":10054,"Ġexpressed":10055,"Ġexpansion":10056,"ĠabdÃ¼lkerim":10057,"802":10058,"barry":10059,"Ġcornelius":10060,"Ġferry":10061,"Ġpowerful":10062,"Ġdayna":10063,"Ġdrive":10064,"Ġramiro":10065,"Ġformal":10066,"Ġseventh":10067,"Ġexpert":10068,"Ġjeffrey":10069,"Ġnguy":10070,"Ġtalk":10071,"Ġgarner":10072,"Ġgarlinghouse":10073,"Ġstockhol":10074,"Ġvolos":10075,"Ġvolga":10076,"Ġmcgill":10077,"iuseppe":10078,"ounced":10079,"Ġsarah":10080,"Ġsargs":10081,"Ġsarajevo":10082,"Ġwriters":10083,"Ġokina":10084,"Ġhogue":10085,"Ġhoggid":10086,"Ġkrishna":10087,"Ġrestaur":10088,"Ġraja":10089,"Ġrajai":10090,"Ġrajendra":10091,"Ġvisual":10092,"Ġscholtz":10093,"Ġcompleting":10094,"winner":10095,"Ġbanker":10096,"Ġgianluca":10097,"Ġvella":10098,"Ġsherwin":10099,"Ġsherdog":10100,"Ġfinishes":10101,"Ġbailhach":10102,"Ġcallanan":10103,"Ġpenitusi":10104,"Ġinnov":10105,"Ġlatur":10106,"Ġgoodloe":10107,"Ġfrancesca":10108,"Ġdefeating":10109,"Ġcyclones":10110,"Ġcongressman":10111,"Ġmikhail":10112,"Ġghassan":10113,"Ġghulam":10114,"Ġgyalts":10115,"Ġvasco":10116,"Ġ1792":10117,"Ġadvance":10118,"Ġjacobsen":10119,"Ġnomination":10120,"Ġnominations":10121,"castillo":10122,"doug":10123,"doctoral":10124,"khuli":10125,"khosiem":10126,"Ġsibylle":10127,"Ġmachado":10128,"Ġdogs":10129,"Ġindividuals":10130,"Ġcontinues":10131,"Ġcontinental":10132,"Ġregularly":10133,"Ġsaskia":10134,"wheler":10135,"Ã§e":10136,"Ġuribe":10137,"Ġfreddie":10138,"Ġpotgie":10139,"Ġmuhammad":10140,"Ġmuvun":10141,"Ġjustin":10142,"Ġjakobstad":10143,"Ġrange":10144,"Ġprospero":10145,"Ġalfredo":10146,"Ġscholarship":10147,"track":10148,"Ä±ldÄ±":10149,"Ġsawai":10150,"Ġbilbao":10151,"Ġcraig":10152,"Ġhawes":10153,"Ġhawks":10154,"Ġhawthorn":10155,"ĠnÃ©stor":10156,"Ġkirk":10157,"bility":10158,"Ġbolton":10159,"Ġfernand":10160,"Ġpersepolis":10161,"Ġpassed":10162,"Ġwatts":10163,"Ġlucie":10164,"Ġimpression":10165,"Ġconvic":10166,"Ġweekly":10167,"Ġbreakthrough":10168,"Ġespecially":10169,"Ġepisodes":10170,"Ġsugai":10171,"ĠpodesovÃ¡":10172,"Ġmaine":10173,"Ġnineteenth":10174,"Ġkwon":10175,"Ġkwame":10176,"Ġeagle":10177,"Ġphysicians":10178,"frank":10179,"frances":10180,"Ġernst":10181,"Ġernest":10182,"Ġsriwijaya":10183,"Ġsampson":10184,"Ġcatamarca":10185,"Ġfunds":10186,"Ġmesser":10187,"Ġhumanitarian":10188,"Ġintegr":10189,"Ġkerdegh":10190,"Ġkillam":10191,"Ġkilling":10192,"Ġvacated":10193,"Ġprominence":10194,"Ġconstable":10195,"Ġextreme":10196,"Ġmalaysian":10197,"Ġsvoboda":10198,"Ġsusan":10199,"Ġbernardo":10200,"Ġfutsal":10201,"Ġmoldovan":10202,"Ġhospitals":10203,"Ġjarrad":10204,"cheon":10205,"Ġlasted":10206,"appear":10207,"Ġvenerated":10208,"Ġconcerts":10209,"Ġcolonial":10210,"Ġzagora":10211,"Ġsupporting":10212,"Ġhenriksson":10213,"subwin":10214,"Ġelliston":10215,"Ġaikath":10216,"Ġsentenced":10217,"Ġbanjo":10218,"Ġbanisadr":10219,"Ġcinemat":10220,"Ġmrs":10221,"Ġmutu":10222,"Ġmutobo":10223,"Ġwheel":10224,"Ġhindu":10225,"Ġtarget":10226,"Ġtargets":10227,"Ġefforts":10228,"Ġchange":10229,"Ġchanois":10230,"Ġchanning":10231,"Ġsemif":10232,"Ġmemorable":10233,"Ġphillips":10234,"Ġpitching":10235,"Ġvalerian":10236,"Ġmotorcy":10237,"cope":10238,"ĠØ¹":10239,"Ġbloch":10240,"Ġbakhtiar":10241,"Ġbakhshish":10242,"Ġciurciu":10243,"Ġciuntu":10244,"Ġthought":10245,"Ġprairie":10246,"Ġmahar":10247,"Ġmahmud":10248,"Ġwahlstedt":10249,"Ġnationwide":10250,"Ġnizhn":10251,"ĠtamÃ¡s":10252,"Ġtatul":10253,"Ġgrenad":10254,"andrÃ©":10255,"Ġnevado":10256,"oudhary":10257,"Ġsprings":10258,"Ġspringer":10259,"Ġheroes":10260,"Ġdefenceman":10261,"Ġbuildings":10262,"Ġarchitecture":10263,"Ġryuji":10264,"darhod":10265,"large":10266,"Ġulrich":10267,"Ġsunni":10268,"Ġsulu":10269,"Ġsully":10270,"Ġbirmingham":10271,"Ġcsilla":10272,"eniu":10273,"Ġpavlodar":10274,"Ġhajduk":10275,"Ġhajdarhod":10276,"Ġancina":10277,"Ġtanimoto":10278,"ĠjesÃºs":10279,"Ġreplacing":10280,"Ġyanlin":10281,"Ġaldermen":10282,"Ġroscoe":10283,"Ġfocuses":10284,"Ġclaims":10285,"Ġclaimed":10286,"Ġaccomplish":10287,"party":10288,"Ġumpired":10289,"Ġbharat":10290,"Ġfleet":10291,"Ġhometown":10292,"Ġhangzhou":10293,"Ġnovais":10294,"ĠgiÃ²":10295,"Ġlukanova":10296,"ĠlukÃ¡Å¡":10297,"Ġarnoux":10298,"Ġtokyo":10299,"Ġecology":10300,"ĠchiÈĻ":10301,"ĠromÃ¡n":10302,"Ġromaine":10303,"Ġsharyn":10304,"Ġsharychenkov":10305,"Ġ1751":10306,"Ġblonde":10307,"Ġqualified":10308,"Ġemirates":10309,"Ġmagnani":10310,"Ġjournalism":10311,"Ġemployer":10312,"Ġsubsequent":10313,"stephen":10314,"stephens":10315,"Ġnigerian":10316,"Ġprosecut":10317,"midfielder":10318,"napolÃ©":10319,"Ġcurrie":10320,"Ġthurmann":10321,"Ġfurnace":10322,"Ġpicture":10323,"Ġpictures":10324,"Ġinjured":10325,"Ġanimals":10326,"chyenko":10327,"Ġlinda":10328,"Ġlinden":10329,"Ġmarriage":10330,"Ġcharlottes":10331,"Ġannouncer":10332,"Ġalexandria":10333,"Ġoliveira":10334,"Ġviolinist":10335,"busch":10336,"uizamon":10337,"Ġsanderson":10338,"Ġburns":10339,"Ġcategory":10340,"Ġfitzharris":10341,"Ġmackay":10342,"Ġoilers":10343,"Ġhanja":10344,"Ġhiroaki":10345,"Ġhiroyuki":10346,"Ġdinamo":10347,"Ġlanka":10348,"Ġkamberi":10349,"Ġkummer":10350,"Ġreading":10351,"Ġchoice":10352,"Ġrodrigo":10353,"Ġexhibition":10354,"Ġgeoffrey":10355,"Ġabolhassan":10356,"Ġabrams":10357,"Ġcontributor":10358,"Ġprivate":10359,"Ð¸ÑĽ":10360,"Ġvladimirovich":10361,"Ġigorevna":10362,"Ġumalat":10363,"Ġbhai":10364,"Ġbedabrata":10365,"Ġbatiuk":10366,"Ġbatillus":10367,"Ġcartoonist":10368,"Ġfrickleton":10369,"relations":10370,"Ġnashville":10371,"layne":10372,"Ġtolani":10373,"Ġrwanda":10374,"Ġstonehenge":10375,"Ġyui":10376,"Ġyuval":10377,"Ġleaves":10378,"Ġshavo":10379,"Ġensemb":10380,"Ġsteelers":10381,"Ġlastodiyear":10382,"Ġlastodiagainst":10383,"ĠÃīlio":10384,"Ġlibrary":10385,"Ġlibrarian":10386,"profit":10387,"Ġaffiliate":10388,"Ġtranslated":10389,"Ġtransferred":10390,"Ġnicholas":10391,"jackson":10392,"javka":10393,"kelÃ¤":10394,"sami":10395,"uhong":10396,"ÙĦØ":10397,"Ġaeros":10398,"Ġaudio":10399,"Ġszabolcs":10400,"Ġbryant":10401,"Ġcelimli":10402,"Ġmvp":10403,"Ġwohlrapp":10404,"Ġwinds":10405,"Ġwrestler":10406,"Ġhulkk":10407,"Ġintroduc":10408,"Ġinformation":10409,"Ġgeyre":10410,"Ġdetermin":10411,"Ġkelso":10412,"Ġribamar":10413,"Ġyoussef":10414,"Ġchancellor":10415,"Ġuniversid":10416,"Ġcombined":10417,"Ġcollabor":10418,"Ġcolombia":10419,"Ġencour":10420,"Ġknowledge":10421,"Ġzhenzong":10422,"Ġzaragoza":10423,"ĠquÃ©bÃ©":10424,"Ġdaejeon":10425,"Ġdemonstration":10426,"Ġconsisting":10427,"Ġsalamanca":10428,"Ġmatteucc":10429,"Ġportrayed":10430,"Ġslovenia":10431,"Ġsurgeons":10432,"Ġorganizations":10433,"Ġplanet":10434,"Ġpalestinian":10435,"Ġturntables":10436,"Ġremainder":10437,"Ġepiscopal":10438,"Ġchamberlayne":10439,"singlesranking":10440,"Ġpentathlete":10441,"Ġrhythmic":10442,"fernÃ¡ndez":10443,"patrick":10444,"Õ¡Õ":10445,"ĠÄĲÆ¡":10446,"Ġbitam":10447,"Ġbordian":10448,"Ġcossar":10449,"Ġflag":10450,"Ġfatah":10451,"Ġpedro":10452,"Ġwyoming":10453,"Ġnsw":10454,"Ġtape":10455,"ĠtavÄįar":10456,"Ġtrygve":10457,"Ġlogan":10458,"students":10459,"Ġheerenve":10460,"Ġnephew":10461,"Ġrecruited":10462,"Ã©rard":10463,"Ġcurrentpositionplain":10464,"Ġziauddin":10465,"Ġzabrze":10466,"Ġfilmmaker":10467,"Ġpermanent":10468,"Ġgrammy":10469,"Ġweightlifting":10470,"Ġresistance":10471,"Ġxiii":10472,"Ġestimated":10473,"Ġsurveyor":10474,"Ġtownsend":10475,"Ġtreasury":10476,"Ġargueta":10477,"Ġdevonta":10478,"Ġmontenegro":10479,"Ġspecializes":10480,"Ġconfirm":10481,"Ġfelicia":10482,"Ġneighborhoods":10483,"ĠtÄĥrÃ¢Å£eanu":10484,"nailab":10485,"zashe":10486,"zinei":10487,"Å¾iÄĩ":10488,"Ġsnapper":10489,"Ġcitta":10490,"Ġcimbal":10491,"Ġfreshmen":10492,"Ġpackers":10493,"Ġmaple":10494,"Ġmulligan":10495,"Ġmaterial":10496,"Ġmitchell":10497,"Ġtheodore":10498,"Ġhugo":10499,"Ġhollendorfer":10500,"Ġdorner":10501,"Ġdollar":10502,"Ġgagnon":10503,"Ġliability":10504,"ĠlÃ¡tÃ³":10505,"Ġdeckers":10506,"Ġkahlbaum":10507,"Ġkannada":10508,"Ġkushchyenko":10509,"Ġreplacement":10510,"Ġetoundi":10511,"Ġchidid":10512,"Ġchallenge":10513,"Ġbeyond":10514,"shavn":10515,"Ġapollonius":10516,"Ġpolytechn":10517,"Ġzapata":10518,"Ġperfect":10519,"Ġrussell":10520,"Ġdistinction":10521,"Ġqualific":10522,"Ġconsecutive":10523,"Ġskylab":10524,"Ġberkshire":10525,"ÃŃostÃ³ir":10526,"Ġslimane":10527,"Ġincorpor":10528,"Ġdominguez":10529,"Ġtreatment":10530,"suffix":10531,"Ġtransportation":10532,"Ġakhilesh":10533,"Ġqiuhong":10534,"Ġjuvenal":10535,"Ġvasilyev":10536,"Ġpracticing":10537,"ĠÅłpirelja":10538,"Ġbirkenhead":10539,"Ġceremony":10540,"Ġtouchdowns":10541,"Ġmanufacturer":10542,"bahÃ§e":10543,"gerald":10544,"gibson":10545,"subloss":10546,"sainsbury":10547,"tunkhwa":10548,"western":10549,"woman":10550,"Ġauthors":10551,"Ġavalanche":10552,"iniemi":10553,"onidzashe":10554,"ĠsÃ¡enz":10555,"Ġsloan":10556,"Ġslavia":10557,"Ġbolden":10558,"Ġblessed":10559,"Ġbicycle":10560,"tirbu":10561,"artheid":10562,"Ġcialente":10563,"Ġcatesby":10564,"Ġfabisiak":10565,"Ġfukuoka":10566,"ĠfenerbahÃ§e":10567,"Ġpisseri":10568,"Ġpomeroy":10569,"ĠmÃ¤kelÃ¤":10570,"Ġtheoretical":10571,"Ġomaha":10572,"Ġokochi":10573,"Ġhundred":10574,"Ġhsbc":10575,"Ġhinchcliffe":10576,"Ġdiler":10577,"Ġdaher":10578,"Ġdroney":10579,"Ġdlamini":10580,"ĠdÃºrÃ³":10581,"ĠdÆ°Æ¡ng":10582,"Ġnocera":10583,"Ġnippon":10584,"Ġintellect":10585,"Ġanugerah":10586,"Ġjardine":10587,"Ġjumper":10588,"ĠgÃ¼ler":10589,"Ġljubljana":10590,"Ġdetective":10591,"Ġkuparinen":10592,"Ġkhyber":10593,"Ġkeddell":10594,"Ġristiniemi":10595,"ĠrÃ¡kospalot":10596,"adabida":10597,"siysk":10598,"sibilities":10599,"Ġstansfield":10600,"Ġyoshika":10601,"Ġeggert":10602,"ĠasunciÃ³n":10603,"ĠvaviÄĩ":10604,"Ġseahawks":10605,"Ġcoyotes":10606,"Ġbeaudin":10607,"Ġnegotiations":10608,"Ġnejmeh":10609,"Ġlazarus":10610,"Ġcombination":10611,"Ġconclusion":10612,"Ġmemoir":10613,"employer":10614,"Ġrecurring":10615,"Ġengeldinger":10616,"Ġmanitoba":10617,"Ġmanhattan":10618,"Ġtiraspol":10619,"Ġparamount":10620,"Ġschuening":10621,"ĠzÃ¡leskÃ¡":10622,"Ġzvezda":10623,"Ġexchange":10624,"Ġacosta":10625,"Ġtwiselton":10626,"ĠgrÃ¶nhagen":10627,"Ġgrimsby":10628,"ĠgrgureviÄĩ":10629,"Ġoverturned":10630,"Ġsenegal":10631,"Ġbuccaneers":10632,"Ġpatenaude":10633,"Ġsaifuddien":10634,"noÅ¡t":10635,"Ġbertrand":10636,"beganskating":10637,"Ġnovorossiysk":10638,"Ġkarnataka":10639,"Ġsloukas":10640,"Ġmurdoch":10641,"Ġbenedict":10642,"Ġmadhopur":10643,"Ġpastteamsnote":10644,"Ġfiggemeier":10645,"Ġnguyen":10646,"Ġsargsyan":10647,"Ġhoggidy":10648,"Ġbailhache":10649,"Ġgyaltsen":10650,"Ġpotgieter":10651,"Ġmuvunyi":10652,"Ä±ldÄ±ray":10653,"Ġkerdeghly":10654,"Ġmutobola":10655,"ĠhajdarhodÅ¾iÄĩ":10656,"ĠchiÈĻinÄĥu":10657,"napolÃ©on":10658,"Ġcharlottesville":10659,"Ġhulkkonen":10660,"Ġintroduced":10661,"ĠquÃ©bÃ©cois":10662,"Ġmatteucci":10663,"ĠÄĲÆ¡n":10664,"Ġheerenveen":10665,"Ġpolytechnic":10666,"ĠrÃ¡kospalotai":10667,"110":10668,"32":10669,"39":10670,"48":10671,"52":10672,"500":10673,"95":10674,"bv":10675,"ben":10676,"bes":10677,"bat":10678,"bay":10679,"bow":10680,"best":10681,"bach":10682,"bik":10683,"bati":10684,"blo":10685,"bÃ¼":10686,"bats":10687,"cla":10688,"cri":10689,"card":10690,"cend":10691,"cles":10692,"camp":10693,"cock":10694,"cron":10695,"creen":10696,"cribed":10697,"dal":10698,"duch":10699,"eholder":10700,"fin":10701,"fon":10702,"far":10703,"fir":10704,"fit":10705,"fts":10706,"fort":10707,"fix":10708,"gon":10709,"gart":10710,"gov":10711,"gham":10712,"guk":10713,"gae":10714,"hk":10715,"hit":10716,"hame":10717,"high":10718,"hay":10719,"hov":10720,"hik":10721,"hugh":10722,"hys":10723,"http":10724,"hurst":10725,"iber":10726,"iÃº":10727,"iyes":10728,"iÃ¨re":10729,"jm":10730,"jv":10731,"jul":10732,"jac":10733,"jak":10734,"jÅį":10735,"kol":10736,"kell":10737,"kuba":10738,"lce":10739,"lÃ©":10740,"lenn":10741,"lings":10742,"lincoln":10743,"length":10744,"mu":10745,"mes":10746,"mir":10747,"met":10748,"math":10749,"mart":10750,"mie":10751,"mod":10752,"nk":10753,"nen":10754,"nus":10755,"nim":10756,"nia":10757,"nath":10758,"nodar":10759,"oil":10760,"oster":10761,"ount":10762,"otica":10763,"pd":10764,"pn":10765,"pose":10766,"pace":10767,"poss":10768,"papan":10769,"pij":10770,"post":10771,"pression":10772,"pierre":10773,"pearce":10774,"ptian":10775,"piece":10776,"qed":10777,"rc":10778,"rh":10779,"rays":10780,"sed":10781,"sol":10782,"sse":10783,"sden":10784,"saint":10785,"tre":10786,"tla":10787,"tsi":10788,"tter":10789,"tut":10790,"tting":10791,"taya":10792,"tÃ¼r":10793,"tendorf":10794,"two":10795,"trane":10796,"ua":10797,"uation":10798,"uff":10799,"uania":10800,"vic":10801,"vig":10802,"vian":10803,"vity":10804,"vinc":10805,"vind":10806,"viction":10807,"venty":10808,"viously":10809,"wol":10810,"wig":10811,"wos":10812,"wai":10813,"warm":10814,"wondo":10815,"xs":10816,"yol":10817,"zy":10818,"zap":10819,"zburg":10820,"zhi":10821,"zÅį":10822,"zzo":10823,"¡æĸĩ":10824,"§ÙĦØ":10825,"¨ì":10826,"¹Į":10827,"¿Ĺ":10828,"Ãª":10829,"Ãł":10830,"Ä«":10831,"Åĳ":10832,"Î±":10833,"Î½":10834,"ÏĤ":10835,"ÏĦ":10836,"Ð´":10837,"×ķ":10838,"ÛĮ":10839,"à¹Į":10840,"å¤":10841,"åħ":10842,"åŃ":10843,"å¿Ĺ":10844,"æķ":10845,"æĺ":10846,"íĽ":10847,"ĠÎ":10848,"Ġë":10849,"Ġtic":10850,"Ġears":10851,"Ġion":10852,"Ġvers":10853,"Ġip":10854,"Ġult":10855,"Ġordin":10856,"ļjp":10857,"Ġaa":10858,"Ġace":10859,"Ġaia":10860,"Ġaway":10861,"Ġaaa":10862,"erk":10863,"erran":10864,"erton":10865,"thir":10866,"thood":10867,"thony":10868,"thwine":10869,"iny":10870,"inah":10871,"onn":10872,"onar":10873,"onounced":10874,"ano":10875,"anes":10876,"another":10877,"anÃ§":10878,"anthony":10879,"Ġsig":10880,"Ġsag":10881,"Ġster":10882,"Ġsut":10883,"Ġsos":10884,"Ġsust":10885,"Ġsiv":10886,"Ġsok":10887,"Ġsurr":10888,"Ġswe":10889,"Ġssp":10890,"Ġska":10891,"ĠsÃ¼":10892,"Ġsony":10893,"Ġsays":10894,"Ġsessions":10895,"oro":10896,"orted":10897,"organ":10898,"Ġbing":10899,"Ġbun":10900,"Ġbce":10901,"Ġbum":10902,"ĠbÃ©":10903,"Ġbure":10904,"Ġbbr":10905,"Ġbuck":10906,"Ġbagh":10907,"Ġbiath":10908,"Ġbrennan":10909,"tit":10910,"Ġ119":10911,"aris":10912,"aring":10913,"arsh":10914,"arthur":10915,"Ġcrb":10916,"Ġcul":10917,"Ġcos":10918,"Ġcric":10919,"Ġcaf":10920,"Ġcrum":10921,"Ġcuba":10922,"ened":10923,"engo":10924,"enworth":10925,"enthal":10926,"Ġthin":10927,"Ġthing":10928,"Ġthun":10929,"Ġthous":10930,"ĠthÃ¼r":10931,"Ġthail":10932,"Ġthresh":10933,"Ġfear":10934,"Ġfey":10935,"Ġfled":10936,"Ġfide":10937,"Ġfender":10938,"Ġfais":10939,"Ġfunk":10940,"Ġfumb":10941,"Ġfalse":10942,"Ġfotb":10943,"Ġfumble":10944,"alb":10945,"alom":10946,"alou":10947,"alore":10948,"alaj":10949,"alani":10950,"albers":10951,"alias":10952,"Ġpand":10953,"Ġpie":10954,"Ġpeer":10955,"Ġpenc":10956,"Ġplo":10957,"Ġpinc":10958,"Ġpors":10959,"Ġpadu":10960,"Ġpellow":10961,"Ġpurs":10962,"Ġpasi":10963,"Ġpaula":10964,"level":10965,"leutn":10966,"Ġmic":10967,"Ġmit":10968,"Ġmall":10969,"Ġmie":10970,"Ġmord":10971,"Ġmell":10972,"Ġmong":10973,"Ġmine":10974,"Ġmaw":10975,"Ġmbe":10976,"Ġmersey":10977,"Ġmiro":10978,"Ġmumb":10979,"Ġmanga":10980,"Ġwc":10981,"Ġwan":10982,"Ġwad":10983,"Ġwav":10984,"Ġwfan":10985,"Ġwitch":10986,"Ġwange":10987,"Ġwqed":10988,"Ġtheologian":10989,"isation":10990,"istic":10991,"istics":10992,"isleton":10993,"Ġou":10994,"Ġow":10995,"Ġole":10996,"Ġoce":10997,"Ġoct":10998,"Ġoath":10999,"Ġosh":11000,"Ġoleg":11001,"Ġhk":11002,"Ġhil":11003,"Ġhut":11004,"Ġhary":11005,"Ġhack":11006,"Ġhands":11007,"Ġhanna":11008,"Ġhowell":11009,"Ġhordy":11010,"reg":11011,"rel":11012,"rete":11013,"rees":11014,"rets":11015,"resid":11016,"remo":11017,"regation":11018,"ready":11019,"Ġ219":11020,"Ġdre":11021,"Ġdame":11022,"Ġdod":11023,"Ġdix":11024,"Ġdors":11025,"Ġdhar":11026,"Ġdrib":11027,"Ġdalian":11028,"Ġduel":11029,"Ġdata":11030,"Ġdumon":11031,"Ġdarts":11032,"ĠdÃ³ra":11033,"Ġnay":11034,"Ġnath":11035,"Ġnab":11036,"Ġnuc":11037,"Ġnure":11038,"Ġnurse":11039,"Ġnlex":11040,"Ġnacional":11041,"Ġnfldrafted":11042,"asing":11043,"asub":11044,"aside":11045,"asium":11046,"asbourg":11047,"Ġing":11048,"Ġinfor":11049,"Ġinqu":11050,"Ġinsp":11051,"Ġinten":11052,"Ġinside":11053,"ĠinÃ¡cio":11054,"among":11055,"amington":11056,"amÄģ":11057,"amengo":11058,"Ġana":11059,"Ġanak":11060,"Ġango":11061,"Ġanita":11062,"Ġanzhi":11063,"esund":11064,"esiz":11065,"eshi":11066,"laughter":11067,"icature":11068,"icient":11069,"iciary":11070,"edin":11071,"edward":11072,"edgar":11073,"editor":11074,"edited":11075,"roe":11076,"road":11077,"romero":11078,"iran":11079,"irving":11080,"Ġtn":11081,"Ġts":11082,"Ġtall":11083,"Ġtah":11084,"Ġtati":11085,"Ġtable":11086,"Ġtba":11087,"Ġtsar":11088,"Ġtadas":11089,"Ġ206":11090,"Ġ208":11091,"Ġandile":11092,"Ġandalou":11093,"Ġjen":11094,"Ġjill":11095,"Ġjai":11096,"Ġjena":11097,"Ġjama":11098,"Ġjets":11099,"Ġjagu":11100,"Ġjurist":11101,"uno":11102,"unte":11103,"unes":11104,"union":11105,"untain":11106,"unned":11107,"Ġgent":11108,"Ġgive":11109,"Ġgans":11110,"Ġgives":11111,"Ġgamma":11112,"Ġgomes":11113,"Ġgopinath":11114,"Ġgiuseppe":11115,"ĠgÃ©rard":11116,"elan":11117,"elia":11118,"eline":11119,"elck":11120,"eloff":11121,"elids":11122,"elhorn":11123,"uspe":11124,"itin":11125,"iture":11126,"itors":11127,"itÃ¤n":11128,"iterran":11129,"chem":11130,"chore":11131,"chast":11132,"church":11133,"charm":11134,"chef":11135,"chwitz":11136,"olia":11137,"urus":11138,"urich":11139,"urday":11140,"uraman":11141,"enter":11142,"enture":11143,"aton":11144,"aters":11145,"atov":11146,"atta":11147,"atsu":11148,"Ġll":11149,"Ġlx":11150,"Ġlon":11151,"Ġlamp":11152,"Ġliam":11153,"Ġlumber":11154,"Ġlite":11155,"Ġliane":11156,"Ġlenny":11157,"Ġlublin":11158,"Ġlunch":11159,"Ġlrc":11160,"berpunk":11161,"igo":11162,"Ġdet":11163,"Ġdey":11164,"Ġdeep":11165,"Ġdeandre":11166,"Ġkan":11167,"Ġkas":11168,"Ġklub":11169,"Ġkab":11170,"Ġkild":11171,"Ġkair":11172,"Ġkaw":11173,"Ġkyl":11174,"Ġkony":11175,"Ġkual":11176,"Ġkasper":11177,"Ġkups":11178,"Ġkandace":11179,"Ġkishan":11180,"Ġktla":11181,"Ġret":11182,"Ġrey":11183,"Ġreis":11184,"Ġreve":11185,"Ġrever":11186,"Ġreward":11187,"Ġrector":11188,"Ġrebo":11189,"Ġretain":11190,"Ġreader":11191,"Ġreverse":11192,"Ġreloc":11193,"Ġariel":11194,"Ġarica":11195,"Ġarms":11196,"Ġarlington":11197,"Ġarnaud":11198,"ĠarnoÅ¡t":11199,"Ġarvind":11200,"heath":11201,"state":11202,"stra":11203,"stain":11204,"stov":11205,"stone":11206,"style":11207,"stroom":11208,"Ġrr":11209,"Ġrts":11210,"Ġrory":11211,"Ġrens":11212,"Ġrony":11213,"Ġrinz":11214,"Ġrenzong":11215,"Ġforum":11216,"Ġforbes":11217,"adition":11218,"adalaj":11219,"agn":11220,"agara":11221,"Ġtoul":11222,"Ġtoled":11223,"Ġtope":11224,"Ġtower":11225,"Ġtowards":11226,"Ġtottenham":11227,"sius":11228,"simon":11229,"omic":11230,"omach":11231,"omutov":11232,"Ġisle":11233,"Ġisab":11234,"Ġissued":11235,"teri":11236,"andi":11237,"andu":11238,"anded":11239,"tless":11240,"Ġstur":11241,"Ġstore":11242,"Ġstations":11243,"Ġstands":11244,"Ġstaged":11245,"Ġstutt":11246,"Ġstomach":11247,"Ġye":11248,"Ġyet":11249,"Ġyak":11250,"Ġyem":11251,"Ġyah":11252,"Ġyev":11253,"Ġyury":11254,"Ġyao":11255,"ults":11256,"ulna":11257,"ullah":11258,"Ġalou":11259,"Ġaloy":11260,"platz":11261,"mberg":11262,"Ġeig":11263,"Ġeup":11264,"Ġetz":11265,"Ġchl":11266,"Ġches":11267,"Ġchel":11268,"Ġchak":11269,"Ġchose":11270,"Ġchino":11271,"Ġchaud":11272,"Ġchaco":11273,"Ġchiba":11274,"Ġchoudhary":11275,"Ġchuraman":11276,"Ġchomutov":11277,"Ġheyd":11278,"Ġheinz":11279,"Ġheiden":11280,"aces":11281,"action":11282,"acom":11283,"Ġashl":11284,"Ġaskalu":11285,"Ġaspir":11286,"vera":11287,"iang":11288,"iants":11289,"Ġunre":11290,"Ġunits":11291,"alli":11292,"allurg":11293,"allows":11294,"idan":11295,"idemi":11296,"apa":11297,"apon":11298,"Ġvb":11299,"Ġvil":11300,"Ġvia":11301,"Ġvri":11302,"Ġvod":11303,"Ġvang":11304,"Ġvib":11305,"Ġvila":11306,"ĠvÃ¢":11307,"Ġvfa":11308,"eton":11309,"etary":11310,"utation":11311,"utub":11312,"ubin":11313,"ubice":11314,"Ġatp":11315,"Ġatkins":11316,"Ġatomic":11317,"Ġseg":11318,"Ġseals":11319,"Ġsector":11320,"Ġsequ":11321,"Ġsebr":11322,"ĠseÃ¡n":11323,"Ġsejavka":11324,"Ġsejm":11325,"Ġseventy":11326,"Ġseaside":11327,"Ġlea":11328,"Ġleif":11329,"Ġleop":11330,"Ġleip":11331,"Ġleamington":11332,"mere":11333,"mers":11334,"ista":11335,"uph":11336,"rique":11337,"uggen":11338,"ugesund":11339,"ugelhorn":11340,"rav":11341,"rative":11342,"raits":11343,"raving":11344,"rajaya":11345,"Ġ1821":11346,"Ġ1828":11347,"umoc":11348,"Ġrough":11349,"Ġrode":11350,"Ġroster":11351,"Ġroots":11352,"Ġrogers":11353,"Ġrooster":11354,"Ġrostov":11355,"Ġroubin":11356,"Ġunique":11357,"osis":11358,"osing":11359,"oshi":11360,"Ġnationalcom":11361,"Ġcoy":11362,"Ġcoal":11363,"Ġcour":11364,"Ġcooper":11365,"Ġprove":11366,"Ġprovision":11367,"Ġtemor":11368,"Ġimg":11369,"Ġimm":11370,"Ġimmed":11371,"Ġbeled":11372,"Ġbeating":11373,"Ġbeograd":11374,"Ġneg":11375,"Ġneon":11376,"Ġneuch":11377,"Ġnebel":11378,"uela":11379,"Ġmarg":11380,"Ġmarx":11381,"Ġmarry":11382,"ĠmarÃŃ":11383,"Ġmarsden":11384,"manyam":11385,"ievich":11386,"shary":11387,"shine":11388,"short":11389,"shina":11390,"shane":11391,"shasa":11392,"oua":11393,"uda":11394,"Ġspel":11395,"Ġspend":11396,"Ġspee":11397,"Ġspelling":11398,"Ġspelled":11399,"Ġlajos":11400,"Ġlafay":11401,"Ġlauder":11402,"erslau":11403,"ordshire":11404,"aks":11405,"akar":11406,"aklis":11407,"Ġcompla":11408,"Ġcomets":11409,"Ġconver":11410,"Ġconqu":11411,"Ġconcep":11412,"illers":11413,"illier":11414,"isher":11415,"ifax":11416,"Ġnewly":11417,"Ġnewcom":11418,"Ġnewbridge":11419,"Ġnewcas":11420,"Ġjozinei":11421,"ovi":11422,"Ġshop":11423,"Ġshod":11424,"Ġshock":11425,"Ġshaw":11426,"ĠshÅį":11427,"icks":11428,"endon":11429,"endent":11430,"rank":11431,"rant":11432,"Ġcoltrane":11433,"oustic":11434,"aving":11435,"avio":11436,"avada":11437,"avour":11438,"Ġcaprice":11439,"Ġfootnotes":11440,"Ġmeh":11441,"Ġmeasure":11442,"Ġbyu":11443,"ryan":11444,"abbre":11445,"abhivamsa":11446,"ipato":11447,"Ġjanne":11448,"Ġjanitor":11449,"Ġamericans":11450,"ache":11451,"acher":11452,"achipato":11453,"Ġ62":11454,"Ġ4802":11455,"Ġboy":11456,"Ġboom":11457,"Ġbourn":11458,"Ġbobru":11459,"Ġbogot":11460,"ucted":11461,"ivan":11462,"ivtsi":11463,"sohn":11464,"ikpapan":11465,"undo":11466,"undes":11467,"Ġscr":11468,"Ġscri":11469,"Ġscatter":11470,"Ġmove":11471,"Ġmoiz":11472,"Ġmolec":11473,"Ġuniversal":11474,"Ġcars":11475,"Ġcarried":11476,"Ġcarriac":11477,"Ġcaricature":11478,"ected":11479,"Ġhasan":11480,"emar":11481,"emouth":11482,"Ġpred":11483,"Ġpreston":11484,"Ġprepar":11485,"Ġnoah":11486,"Ġenth":11487,"Ġenemy":11488,"Ġenforce":11489,"ffd":11490,"ffen":11491,"lesfield":11492,"oko":11493,"okast":11494,"okesa":11495,"okalani":11496,"owner":11497,"ogue":11498,"ogical":11499,"Ġpolins":11500,"sonian":11501,"ĠjunÃŃpero":11502,"Ġaugsburg":11503,"Ġherb":11504,"Ġherald":11505,"renee":11506,"ctors":11507,"assic":11508,"assel":11509,"assembly":11510,"asspor":11511,"Ġ71":11512,"Ġ755":11513,"Ġuan":11514,"Ġutil":11515,"Ġutica":11516,"anges":11517,"Ġindic":11518,"Ġindrani":11519,"Ġengraving":11520,"sident":11521,"Ġtimo":11522,"mentation":11523,"izing":11524,"Ġbring":11525,"Ġbrno":11526,"ĠbrÃ¸":11527,"Ġparram":11528,"Ġparakar":11529,"Ġschedu":11530,"Ġteama":11531,"Ġagatha":11532,"Ġagustina":11533,"Ġterror":11534,"lda":11535,"sea":11536,"seven":11537,"sequently":11538,"Ġcanhoteiro":11539,"Ġpronounced":11540,"Ġeditors":11541,"atedly":11542,"Ġcollet":11543,"Ġcollector":11544,"Ġ107":11545,"Ġ1045":11546,"Ġ1023":11547,"urnalist":11548,"Ġcompens":11549,"Ġ126":11550,"Ġ1724":11551,"Ġ1788":11552,"matic":11553,"major":11554,"Ġ1520":11555,"Ġmines":11556,"Ġreported":11557,"Ġsuit":11558,"Ġsuzana":11559,"Ġsuicide":11560,"Ġsulabha":11561,"Ġgeneration":11562,"ĠgenzÅį":11563,"Ġzandon":11564,"Ġzdravko":11565,"Ġzurich":11566,"Ġassigned":11567,"1983":11568,"1930":11569,"1935":11570,"1976":11571,"1977":11572,"1972":11573,"1928":11574,"1941":11575,"box":11576,"boer":11577,"boot":11578,"Ġterminal":11579,"Ġadair":11580,"Ġfind":11581,"ampol":11582,"Ġfranco":11583,"Ġthatcher":11584,"raltar":11585,"Ġ160":11586,"Ġ168":11587,"Ġ1673":11588,"Ġ1606":11589,"Ġ1643":11590,"Ġ1694":11591,"theless":11592,"tozap":11593,"Ġbatt":11594,"Ġbaton":11595,"Ġweimar":11596,"Ġformerchore":11597,"clube":11598,"ricted":11599,"Ġexc":11600,"Ġexamp":11601,"Ġexact":11602,"Ġexcep":11603,"php":11604,"phil":11605,"Ġafc":11606,"Ġafldra":11607,"ildings":11608,"Ġbros":11609,"Ġacted":11610,"Ġactions":11611,"Ġacoustic":11612,"reek":11613,"Ġitf":11614,"Ġsouthampton":11615,"Ġsoutheast":11616,"Ġtwisleton":11617,"Ġbasel":11618,"Ġfullerton":11619,"Ġ116":11620,"Ġ118":11621,"Ġcali":11622,"kevin":11623,"Ġusl":11624,"Ġuses":11625,"Ġnoranda":11626,"Ġnorihiro":11627,"Ġnorayr":11628,"Ġbarack":11629,"Ġbarris":11630,"Ġgeffen":11631,"azulu":11632,"ajah":11633,"Ġguar":11634,"Ġguild":11635,"Ġguadalaj":11636,"Ġcommem":11637,"Ġcommanding":11638,"Ã¡ti":11639,"Ġstevan":11640,"Ġmediterran":11641,"week":11642,"marc":11643,"mare":11644,"marshall":11645,"marlow":11646,"Ġpoles":11647,"Ġmidfield":11648,"Ġmidlands":11649,"Ġmidsum":11650,"spur":11651,"spira":11652,"Ġbandmates":11653,"lable":11654,"hisar":11655,"Ġcharged":11656,"Ġchargers":11657,"Ġcharges":11658,"Ġ280":11659,"Ġ286":11660,"loth":11661,"load":11662,"good":11663,"Ġstatleague":11664,"Ġgras":11665,"Ġgrays":11666,"vised":11667,"Ġallman":11668,"Ġallied":11669,"Ġallround":11670,"Ġlook":11671,"Ġsecured":11672,"Ġsecrets":11673,"Ġaba":11674,"Ġabu":11675,"Ġabil":11676,"Ġabuse":11677,"Ġabortion":11678,"Ġcru":11679,"Ġcrist":11680,"ĠcrÃŃostÃ³ir":11681,"Ġirina":11682,"Ġiraklis":11683,"Ġharriers":11684,"Ġelena":11685,"Ġelvin":11686,"Ġdavide":11687,"Ġ218":11688,"Ġsole":11689,"Ġsoap":11690,"Ġsoft":11691,"bylu":11692,"Ġearn":11693,"anced":11694,"ancayo":11695,"Ġtracy":11696,"Ġtrampol":11697,"Ġsanremo":11698,"Ġpei":11699,"Ġpeach":11700,"Ġpeking":11701,"Ġbloc":11702,"Ġblog":11703,"Ġblank":11704,"brig":11705,"brad":11706,"bruck":11707,"bruce":11708,"bruno":11709,"Ġclim":11710,"Ġclip":11711,"Ġclerk":11712,"Ġkingpin":11713,"Ġmonroe":11714,"Ġmonetary":11715,"Ġyearaend":11716,"Ġyearastart":11717,"Ġ260":11718,"Ġ269":11719,"ĠmichaÃ«l":11720,"Ġdistribution":11721,"petition":11722,"valer":11723,"Ġcrop":11724,"Ġcrock":11725,"Ġhighlands":11726,"Ġdesire":11727,"Ġnotre":11728,"Ġnotably":11729,"Ġproducers":11730,"Ġdirecting":11731,"Ġinternal":11732,"kerk":11733,"Ġamir":11734,"Ġamos":11735,"Ġamher":11736,"Ġsmt":11737,"Ġsmoke":11738,"Ġhail":11739,"Ġhaugesund":11740,"iginovi":11741,"ileo":11742,"Ġquite":11743,"Ġyohei":11744,"Ġyoutub":11745,"Ġdaily":11746,"Ġdauph":11747,"Ġgrove":11748,"hlal":11749,"Ġalbio":11750,"Ġalbania":11751,"Ġministers":11752,"inojÅį":11753,"Ġregina":11754,"Ġregained":11755,"Ġreggae":11756,"Ġrule":11757,"ronics":11758,"Ġndour":11759,"Ġswing":11760,"Ġswallows":11761,"enders":11762,"Ġflamengo":11763,"Ġflugelhorn":11764,"Ġdisband":11765,"Ġdismiss":11766,"Ġvicenz":11767,"gered":11768,"itimate":11769,"Ġmilitant":11770,"Ġmilsami":11771,"Ġhof":11772,"Ġhove":11773,"Ġhooker":11774,"Ġresort":11775,"Ġmajors":11776,"Ġinternationals":11777,"deacon":11778,"Ġsyriac":11779,"Ġolympians":11780,"Ġolympiak":11781,"Ġunderstanding":11782,"Ġunderworld":11783,"Ġ1866":11784,"offic":11785,"Ġmcdoug":11786,"Ġotherwins":11787,"Ġotherparty":11788,"Ġjeanne":11789,"Ġlegion":11790,"Ġrockford":11791,"aux":11792,"Ã¼sey":11793,"Ġups":11794,"ylie":11795,"ylokast":11796,"Ġbuch":11797,"Ġpatr":11798,"Ġpattaya":11799,"Ġalexei":11800,"uken":11801,"Ġcases":11802,"Ġcasey":11803,"Ġscotsman":11804,"penalty":11805,"Ġbowery":11806,"Ġfeet":11807,"Ġfreetown":11808,"Ġfrequent":11809,"Ġmetres":11810,"Ġmetallurg":11811,"Ġconsumer":11812,"Ġnorthampton":11813,"Ġnorthfle":11814,"conviction":11815,"Ġsaloon":11816,"Ġsalzburg":11817,"Ġresides":11818,"Ġcorp":11819,"Ġcorps":11820,"Ġcorrup":11821,"Ġofficers":11822,"Ġofficially":11823,"Ġofficials":11824,"Ġzeiss":11825,"Ġzephy":11826,"Ġtourist":11827,"Ġtourism":11828,"Ġvalent":11829,"Ġvalue":11830,"journalist":11831,"kscreen":11832,"linear":11833,"Ġbetty":11834,"Ġmoreno":11835,"Ġreceive":11836,"Ġtribec":11837,"Ġrankings":11838,"schneider":11839,"schwerin":11840,"Ġsilent":11841,"Ġsilkscreen":11842,"Ġsimona":11843,"cision":11844,"Ġxama":11845,"Ġxylokast":11846,"Ġshoes":11847,"Ġinvitation":11848,"Ġinventor":11849,"Ġinteractive":11850,"Ġintercep":11851,"Ġinterclube":11852,"Ġinstitution":11853,"Ġinstitutional":11854,"noj":11855,"Ġsami":11856,"Ġsamaj":11857,"Ġbelmont":11858,"Ġbelshina":11859,"Ġclaude":11860,"entity":11861,"Ġpains":11862,"Ġmatters":11863,"Ġmarty":11864,"Ġtravel":11865,"Ġtestcap":11866,"fox":11867,"ĠÃģ":11868,"ĠÃļjp":11869,"Ġcups":11870,"Ġinstruments":11871,"Ġescap":11872,"Ġesteg":11873,"siteit":11874,"Ġindians":11875,"Ġsmithsonian":11876,"garh":11877,"Ġheaded":11878,"Ġheadshot":11879,"harajah":11880,"Ġavant":11881,"Ġavtozap":11882,"Ġarchdu":11883,"Ġarchduch":11884,"Ġarchdeacon":11885,"Ġerik":11886,"Ġerica":11887,"Ġerwin":11888,"Ġerika":11889,"Ġerrol":11890,"Ġcycle":11891,"Ġhollett":11892,"Ġemma":11893,"beg":11894,"prost":11895,"Ġfranciscan":11896,"Ġfrenchopen":11897,"month":11898,"Ġutrecht":11899,"Ġnovgor":11900,"Ġkaren":11901,"Ġkaroli":11902,"Ġjudiciary":11903,"Ġepidemi":11904,"Ġprevent":11905,"Ġslot":11906,"Ġsurreal":11907,"Ġsurrey":11908,"Ġsurpris":11909,"Ġincub":11910,"Ġincident":11911,"Ġtownship":11912,"Ġjournals":11913,"Ġaccident":11914,"Ġelements":11915,"Ġemphys":11916,"Ġ1811":11917,"Ġflorian":11918,"eking":11919,"ekwondo":11920,"Ġmakhach":11921,"Ġrelated":11922,"Ġrelativ":11923,"Ġprogress":11924,"Ġpublication":11925,"Ġpublications":11926,"ulating":11927,"Ġmodder":11928,"Ġderry":11929,"Ġdomenico":11930,"Ġtrees":11931,"Ġshareholder":11932,"Ġalexanderplatz":11933,"Ġvera":11934,"intendent":11935,"Ġsixty":11936,"Ġ1801":11937,"Ġ1803":11938,"Ġ1808":11939,"Ġprovinc":11940,"Ġcaused":11941,"Ġcaucas":11942,"Ġodds":11943,"Ġodicap":11944,"Ġoperations":11945,"Ġblackhawks":11946,"ndby":11947,"obi":11948,"Ġairways":11949,"Ġmadge":11950,"Ġwoodland":11951,"Ġwoodford":11952,"Ġwoodville":11953,"Ġinfluence":11954,"Ġanglo":11955,"Ġcourtney":11956,"Ġsubotica":11957,"Ġbalasub":11958,"Ġbalikpapan":11959,"Ġpanzer":11960,"Ġmereng":11961,"2012":11962,"workplaces":11963,"armac":11964,"armstad":11965,"Ġhammer":11966,"Ġhamidi":11967,"Ġnicknames":11968,"Ġtranmere":11969,"Ġryder":11970,"Ġvote":11971,"Ġvojv":11972,"Ġorganisation":11973,"Ġgeorgios":11974,"Ġlars":11975,"Ġreturning":11976,"Ġ1857":11977,"beck":11978,"liu":11979,"Ġivi":11980,"Ġivka":11981,"Ġividel":11982,"Ġpasto":11983,"Ġmalaw":11984,"Ġtakayuki":11985,"Ġlifetime":11986,"Ġ1838":11987,"Ġpoets":11988,"trower":11989,"Ġakhisar":11990,"Ġborough":11991,"Ġmyth":11992,"Ġmyron":11993,"Ġmyster":11994,"Ġdevices":11995,"Ġtraders":11996,"Ġpeterborough":11997,"host":11998,"hounds":11999,"wortley":12000,"Ġplus":12001,"Ġhalifax":12002,"187":12003,"caron":12004,"draft":12005,"draws":12006,"Ġmacmill":12007,"elssohn":12008,"Ġkenneth":12009,"Ġraped":12010,"Ġrapid":12011,"Ġspeaking":12012,"Ġlegislator":12013,"Ġsuperior":12014,"cials":12015,"Ġjuho":12016,"Ġspecific":12017,"htwine":12018,"urses":12019,"ursing":12020,"Ġsettle":12021,"Ġfellowships":12022,"Ġtheaters":12023,"Ġnomuken":12024,"Ġstarts":12025,"Ġstartup":12026,"Ġcongregation":12027,"Ġcommittees":12028,"stefan":12029,"uzh":12030,"uzon":12031,"ĠnatÃ¡n":12032,"Ġnatwest":12033,"Ġkouba":12034,"balled":12035,"lambert":12036,"ware":12037,"Ġballot":12038,"Ġpetya":12039,"telbruck":12040,"Ġobama":12041,"Ġoblast":12042,"Ġanthrop":12043,"Ġtaekwondo":12044,"Ġturning":12045,"Ġgrace":12046,"Ġkhulna":12047,"Ġrayyan":12048,"Ġmexborough":12049,"Ġbronx":12050,"Ġfrederic":12051,"Ġsilverhead":12052,"young":12053,"Ġsavannah":12054,"Ġlorenz":12055,"Ġkevis":12056,"Ġchristen":12057,"Ġchristine":12058,"Ġcommunist":12059,"Ġmiddleweight":12060,"Ġifa":12061,"Ġpresbyterian":12062,"issance":12063,"Ġdecided":12064,"Ġreality":12065,"Ġstrasbourg":12066,"Ġ1844":12067,"Ġ1847":12068,"Ġexpress":12069,"Ġabdel":12070,"Ġprogramme":12071,"ĠjosÃ©e":12072,"Ġferenc":12073,"Ġholdings":12074,"Ġdriving":12075,"Ġformation":12076,"Ġtranscend":12077,"Ġsaturn":12078,"Ġsaturday":12079,"Ġngonidzashe":12080,"Ġtales":12081,"Ġtalents":12082,"Ġgarrison":12083,"Ġstreak":12084,"Ġstreets":12085,"Ġvolume":12086,"Ġvolunte":12087,"Ġpaintings":12088,"Ġmartinique":12089,"Ã¢tel":12090,"Ġsaratov":12091,"Ġclem":12092,"Ġclemente":12093,"Ġfifty":12094,"Ġfifteen":12095,"Ġwritings":12096,"Ġhandel":12097,"Ġnikitin":12098,"Ġappearancesa":12099,"Ġinvolvement":12100,"Ġachieve":12101,"Ġsasaki":12102,"Ġcredit":12103,"Ġrail":12104,"Ġraunk":12105,"Ġsherborne":12106,"Ġscreened":12107,"Ġoxfordshire":12108,"Ġstatistician":12109,"morrison":12110,"Ġhills":12111,"Ġrecognize":12112,"Ġrecognise":12113,"Ġhighestsinglesranking":12114,"Ġmagazines":12115,"Ġargentinian":12116,"paik":12117,"Ġgym":12118,"Ġashley":12119,"Ġvasile":12120,"Ġ1799":12121,"Ġaddress":12122,"Ġadventures":12123,"Ġliberia":12124,"Ġliberties":12125,"Ġparticipate":12126,"caster":12127,"casts":12128,"doubles":12129,"Ġsiwan":12130,"Ġsiadabida":12131,"Ġbangu":12132,"Ġmachico":12133,"Ġthemes":12134,"Ġdownload":12135,"Ġeastenders":12136,"Ġconferences":12137,"Ġcaptains":12138,"Ġbrianne":12139,"Ġcontinue":12140,"Ġsaskato":12141,"1367":12142,"lorenzo":12143,"Ġpottendorf":12144,"Ġpotchef":12145,"Ġhuachipato":12146,"Ġhuancayo":12147,"Ġhearts":12148,"Ġjake":12149,"Ġrenato":12150,"Ġrenowned":12151,"Ġeverly":12152,"Ġsergeant":12153,"Ġmovements":12154,"Ġelectric":12155,"Ġelectronics":12156,"Ġdefenseman":12157,"canhoteiro":12158,"tradition":12159,"tanimoto":12160,"Ġautom":12161,"Ġautop":12162,"ĠpirÃ¡ti":12163,"Ġronald":12164,"Ġronnie":12165,"Ġconservation":12166,"Ġhalfback":12167,"nikola":12168,"Ġictr":12169,"Ġiconic":12170,"Ġferns":12171,"Ġperspolis":12172,"Ġgibraltar":12173,"Ġlucy":12174,"Ġluciano":12175,"Ġkimber":12176,"vette":12177,"Ġsinglesrecord":12178,"Ġbreaking":12179,"Ġatlante":12180,"Ġatlantics":12181,"à¸±":12182,"ĠÅŀ":12183,"ĠÐĲ":12184,"ĠÐĳ":12185,"Ġsugar":12186,"Ġpodokesa":12187,"Ġmiles":12188,"Ġmainly":12189,"Ġnarrated":12190,"Ġnarrow":12191,"Ġkwazulu":12192,"Ġselectors":12193,"Ġcoulson":12194,"Ġcommandant":12195,"Ġquartered":12196,"Ġmiddlesex":12197,"francis":12198,"riders":12199,"Ġbuddha":12200,"Ġfunded":12201,"Ġfunding":12202,"Ġfloyd":12203,"Ġfairmont":12204,"Ġhumanities":12205,"Ġanalog":12206,"Ġgalway":12207,"Ġgalrani":12208,"Ġkillian":12209,"Ġvacancy":12210,"Ġ068":12211,"Ġindonesian":12212,"Ġextra":12213,"Ġextant":12214,"Ġbroadcasts":12215,"Ġpioneering":12216,"297":12217,"331":12218,"coronation":12219,"ziad":12220,"à´¿":12221,"Ġsusanna":12222,"Ġsuspect":12223,"Ġfrontier":12224,"Ġmendota":12225,"Ġmendelssohn":12226,"Ġmoldavian":12227,"Ġhorse":12228,"Ġhorror":12229,"Ġhurling":12230,"Ġnetworks":12231,"Ġchamplain":12232,"Ġvenkatalakshamma":12233,"Ġletter":12234,"Ġmarcos":12235,"Ġcommercials":12236,"Ġconcent":12237,"Ġconcrete":12238,"Ġjohanna":12239,"Ġjungle":12240,"Ġcorporal":12241,"Ġcorporate":12242,"Ġangelo":12243,"Ġturnedpro":12244,"Ġrestingplace":12245,"Ġglobalization":12246,"group":12247,"subsequently":12248,"Ġellen":12249,"Ġfelix":12250,"Ġfaced":12251,"Ġfantastic":12252,"Ġwildcats":12253,"Ġoldest":12254,"amalabhivamsa":12255,"charlie":12256,"Ġdealing":12257,"Ġeffort":12258,"Ġlesly":12259,"Ġlessons":12260,"Ġconditions":12261,"Ġstefano":12262,"Ġstefanie":12263,"Ġiraqi":12264,"Ġcameroon":12265,"Ġachievements":12266,"Ġmotoring":12267,"Ġorthodoxy":12268,"giovanna":12269,"ĠØ§ÙĦØ":12270,"Ġidelphonse":12271,"Ġpurley":12272,"Ġpurple":12273,"Ġpursuit":12274,"Ġpurpose":12275,"Ġpraised":12276,"Ġposth":12277,"Ġpicked":12278,"Ġoswald":12279,"Ġtuomas":12280,"Ġtoni":12281,"Ġtonight":12282,"Ġtonetti":12283,"Ġtamper":12284,"Ġstaffordshire":12285,"Ġvincenzo":12286,"Ġattempt":12287,"occal":12288,"Ġsprint":12289,"Ġmeegan":12290,"Ġdoctors":12291,"Ġdoctorate":12292,"distance":12293,"larrousse":12294,"natal":12295,"previously":12296,"Ġessay":12297,"Ġessendon":12298,"Ġsadie":12299,"Ġsangita":12300,"Ġpaper":12301,"Ġpayan":12302,"Ġpayne":12303,"Ġmiranda":12304,"Ġdropped":12305,"Ġdatu":12306,"Ġancram":12307,"Ġjesus":12308,"Ġjessie":12309,"Ġlords":12310,"andez":12311,"Ġeugeniu":12312,"Ġvieux":12313,"Ġshirt":12314,"Ġphoebe":12315,"Ġcompanion":12316,"ĠÃĸdÃ¶n":12317,"Ġmakeup":12318,"Ġspeedway":12319,"Ġdoublesrecord":12320,"Ġdoublestitles":12321,"Ġbangladeshi":12322,"Ġsedita":12323,"Ġbotany":12324,"Ġwinners":12325,"Ġhanged":12326,"Ġaragon":12327,"Ġegyptian":12328,"Ġrolling":12329,"Ġsharyl":12330,"Ġqualifier":12331,"Ġvocalists":12332,"Ġmagnate":12333,"Ġsurvived":12334,"Ġsurviving":12335,"ĠandrÃ©ia":12336,"nelson":12337,"Ã±a":12338,"Ġsabha":12339,"Ġbailey":12340,"Ġcurtis":12341,"Ġfurniture":12342,"Ġfurnaces":12343,"Ġpakhtunkhwa":12344,"Ġwave":12345,"Ġhotspur":12346,"Ġinjury":12347,"Ġinjuries":12348,"Ġantiqu":12349,"esposito":12350,"Ġtennis":12351,"Ġtruman":12352,"Ġtrumpet":12353,"Ġtrumbull":12354,"ĠgÃ¶tting":12355,"Ġkamehame":12356,"Ġplayoffs":12357,"Ġcousins":12358,"Ġmobb":12359,"Ġpartnership":12360,"Ġtillman":12361,"Ġsuffering":12362,"Ġcharlton":12363,"Ġcharlotte":12364,"Ġclarke":12365,"Ġclarrie":12366,"Ġregarding":12367,"Ġadvocacy":12368,"throughout":12369,"Ġpsychiatrist":12370,"Ġfriends":12371,"Ġinvestigative":12372,"Ġinvestigating":12373,"Ġparaguayan":12374,"ciousness":12375,"Ġåħ":12376,"Ġèĥ":12377,"Ġsitcom":12378,"ĠsÃ©tif":12379,"Ġfitzgerald":12380,"Ġputrajaya":12381,"Ġhazel":12382,"Ġhazlett":12383,"Ġniall":12384,"Ġniagara":12385,"Ġnavar":12386,"Ġnaval":12387,"Ġnavig":12388,"Ġinswarm":12389,"lawrence":12390,"Ġgetashen":12391,"Ġkeeper":12392,"Ġarmory":12393,"Ġstake":12394,"Ġstrange":12395,"Ġstranger":12396,"Ġcherno":12397,"Ġsexually":12398,"Ġlevy":12399,"Ġlevski":12400,"Ġproperties":12401,"Ġmarketing":12402,"Ġexhibitions":12403,"Ġmonarchy":12404,"Ġbestselling":12405,"Ġmcneill":12406,"Ġholyoke":12407,"Ġcommunication":12408,"Ġbroadcasting":12409,"Ġtrinidadian":12410,"Ġlokomotiva":12411,"cmg":12412,"honneur":12413,"nowiec":12414,"Ġbessie":12415,"ĠbesanÃ§":12416,"Ġthongkhosiem":12417,"Ġfrickley":12418,"ĠmÃ¼n":12419,"Ġhiatus":12420,"Ġdurham":12421,"Ġdestroyer":12422,"Ġlithuania":12423,"Ġrwandan":12424,"Ġleonid":12425,"Ġleavenworth":12426,"Ġterritory":12427,"Ġterritories":12428,"Ġextensive":12429,"Ġperuvian":12430,"aternal":12431,"Ġmacclesfield":12432,"Ġkrasnodar":12433,"Ġmuneyoshi":12434,"Ġresponsibilities":12435,"ĠÃĸztÃ¼r":12436,"authored":12437,"Ġbryn":12438,"Ġbabe":12439,"Ġbahonar":12440,"Ġfunction":12441,"Ġmvv":12442,"Ġwrestling":12443,"Ġopponent":12444,"Ġhulse":12445,"Ġduchy":12446,"Ġduchess":12447,"Ġtactics":12448,"Ġgrounds":12449,"christopher":12450,"Ġkappa":12451,"Ġribbon":12452,"Ġunsuspe":12453,"Ġvillain":12454,"Ġuniversiteit":12455,"Ġcoventry":12456,"Ġpromising":12457,"Ġcombat":12458,"Ġcollaborated":12459,"Ġcolombian":12460,"Ġencoun":12461,"Ġrecoveries":12462,"Ġbrigade":12463,"Ġbrigadier":12464,"Ġzargham":12465,"1954":12466,"Ġevening":12467,"Ġpeaked":12468,"ĠquÃ©bec":12469,"Ġqueensland":12470,"Ġbelieve":12471,"Ġbelieved":12472,"Ġmatteo":12473,"Ġportrayal":12474,"Ġslovenian":12475,"Ġsurgeon":12476,"Ġturntabl":12477,"Ġremaining":12478,"Ġepiscopalian":12479,"Ġbloodstain":12480,"Ġwitnessed":12481,"Ġemployee":12482,"singlestitles":12483,"Ġsynthesiz":12484,"Ġpentathlon":12485,"Ġzimbabwean":12486,"buildings":12487,"ects":12488,"jimmy":12489,"mcmanus":12490,"music":12491,"writers":12492,"Ġcowboys":12493,"Ġclyde":12494,"enoord":12495,"Ġpardee":12496,"Ġpardubice":12497,"Ġpengiran":12498,"Ġmashup":12499,"Ġolsen":12500,"Ġnicolaus":12501,"Ġandrej":12502,"Ġkaduna":12503,"Ġkicked":12504,"Ġkaiser":12505,"Ġkaiserslau":12506,"ommun":12507,"Ġstorm":12508,"Ġstayed":12509,"Ġalcazar":12510,"Ġettelbruck":12511,"Ġechl":12512,"Ġvitalie":12513,"Ġcopies":12514,"Ġprotection":12515,"Ġspokesman":12516,"Ġlahore":12517,"Ġcommentator":12518,"Ġknew":12519,"Ġmanslaughter":12520,"Ġmanifesto":12521,"Ġexcellence":12522,"Ġpersiba":12523,"Ġevolved":12524,"Ġmontego":12525,"Ġlegendary":12526,"Ġbelonged":12527,"Ġarchaeology":12528,"Ġpanelist":12529,"Ġveteran":12530,"Ġveterans":12531,"Ġdisciplines":12532,"Ġfaithful":12533,"Ġinnocence":12534,"Ġinnocenzo":12535,"Ġmaximilian":12536,"Ġidentified":12537,"Ġpunjabi":12538,"Ġarnoldo":12539,"hungary":12540,"louis":12541,"mayassa":12542,"Ġizet":12543,"Ġsindhu":12544,"originally":12545,"Ġbaksan":12546,"Ġbellmare":12547,"Ġclough":12548,"Ġtheravada":12549,"Ġmaldives":12550,"Ġwuhan":12551,"Ġwolves":12552,"Ġdakota":12553,"Ġnandamalabhivamsa":12554,"Ġlumpur":12555,"Ġlombard":12556,"iggins":12557,"Ġkinshasa":12558,"Ġreformed":12559,"Ġarsenal":12560,"Ġrahimi":12561,"Ġforeclos":12562,"Ġstyled":12563,"Ġstingrays":12564,"Ġvietnam":12565,"Ġwharf":12566,"Ġtemper":12567,"Ġconstitutional":12568,"Ġapostle":12569,"Ġoratorio":12570,"Ġtitans":12571,"Ġedmunds":12572,"Ġadaptation":12573,"Ġwarriors":12574,"Ġpoems":12575,"Ġharrisburg":12576,"Ġswitchbacks":12577,"Ġsaudi":12578,"Ġcorinthians":12579,"projects":12580,"Ġaccounts":12581,"Ġgloucester":12582,"Ġcauses":12583,"Ġrevolutionary":12584,"Ġfrederikshavn":12585,"Ġstrategies":12586,"Ġconcerned":12587,"Ġultimately":12588,"Ġbotanical":12589,"Ġjohannesburg":12590,"Ġdinosaur":12591,"Ġtaiwanese":12592,"Ġsymbolism":12593,"Ġhurricanes":12594,"ĠÅģÄĻczna":12595,"2495":12596,"bedabrata":12597,"kowin":12598,"significant":12599,"viktor":12600,"àµģ":12601,"Ġauschwitz":12602,"Ġskiing":12603,"Ġsiblings":12604,"Ġcustom":12605,"Ġthreat":12606,"Ġfighter":12607,"Ġfraud":12608,"Ġfionnbar":12609,"Ġfriedrich":12610,"Ġpneumoc":12611,"Ġmouillier":12612,"Ġmatilda":12613,"Ġmainstream":12614,"Ġherself":12615,"Ġhendrik":12616,"religion":12617,"Ġjavin":12618,"Ġjamalul":12619,"Ġgabriel":12620,"Ġlundahl":12621,"Ġlloyd":12622,"Ġkigali":12623,"Ġarkansas":12624,"Ġrarely":12625,"Ġricardo":12626,"ĠyrjÃ¶":12627,"Ġalumnus":12628,"Ġalpha":12629,"Ġleafs":12630,"rahmanyam":12631,"Ġrochdale":12632,"Ġrosenborg":12633,"Ġimprovis":12634,"Ġladies":12635,"Ġlaunched":12636,"Ġshaun":12637,"opendoublesjuniorresult":12638,"Ġprecurs":12639,"Ġtilley":12640,"selaer":12641,"Ġrepeatedly":12642,"Ġapplied":12643,"Ġexaminer":12644,"Ġelisabeth":12645,"Ġtriathlete":12646,"Ġamassed":12647,"Ġgrowth":12648,"Ġhobart":12649,"Ġscottsdale":12650,"Ġphilanthropist":12651,"Ġtrafford":12652,"Ġerickson":12653,"Ġbengals":12654,"Ġrydberg":12655,"Ġmyrtle":12656,"Ġsettler":12657,"Ġgarnered":12658,"Ġstockholm":12659,"Ġokinawa":12660,"Ġconvicted":12661,"Ġintegrity":12662,"appearances":12663,"Ġcinematographer":12664,"Ġwheelchair":12665,"Ġsemifinals":12666,"Ġmotorcycle":12667,"Ġmaharash":12668,"Ġnizhny":12669,"Ġgrenadines":12670,"Ġprosecutors":12671,"Ġbhaiya":12672,"Ġensemble":12673,"Ġwindsor":12674,"Ġuniversidad":12675,"Ġencouraged":12676,"Ġconfirmation":12677,"Ġqualification":12678,"Ġintellectual":12679,"batillus":12680,"bloom":12681,"cronjÃ©":12682,"iÃºma":12683,"iyespor":12684,"koloss":12685,"lcea":12686,"metal":12687,"possner":12688,"trevor":12689,"Ġticket":12690,"Ġsterling":12691,"Ġsosnowiec":12692,"Ġsustain":12693,"Ġsivasspor":12694,"Ġsokol":12695,"ĠsÃ¼per":12696,"Ġbureau":12697,"Ġbiathlon":12698,"ĠcriciÃºma":12699,"Ġcrumlin":12700,"ĠthÃ¼ringer":12701,"Ġthailand":12702,"Ġthreshold":12703,"Ġfeyenoord":12704,"Ġfaisal":12705,"Ġfumbles":12706,"Ġfotboll":12707,"Ġpencil":12708,"Ġporsche":12709,"Ġpadua":12710,"Ġpursue":12711,"leutnant":12712,"Ġmongolia":12713,"Ġmawr":12714,"Ġmerseyside":12715,"Ġmumbai":12716,"Ġwangechi":12717,"Ġocean":12718,"Ġoshrat":12719,"Ġharyana":12720,"residence":12721,"Ġdharma":12722,"Ġdumont":12723,"Ġnucle":12724,"Ġnuremberg":12725,"Ġangola":12726,"Ġtatiana":12727,"Ġjaguars":12728,"Ġgansu":12729,"elcke":12730,"charmian":12731,"Ġklubi":12732,"Ġkabylie":12733,"Ġkairat":12734,"Ġkylwos":12735,"Ġkuala":12736,"Ġretainer":12737,"Ġrensselaer":12738,"Ġrinzai":12739,"Ġtoledo":12740,"Ġtopeka":12741,"Ġisabella":12742,"Ġstuttgart":12743,"Ġyahoo":12744,"Ġyevna":12745,"Ġalouettes":12746,"Ġaloysius":12747,"Ġetzella":12748,"Ġchaudhary":12749,"Ġheidenheim":12750,"Ġashlie":12751,"Ġvrije":12752,"Ġvanguard":12753,"ĠvÃ¢lcea":12754,"Ġsebring":12755,"Ġleopold":12756,"Ġleipzig":12757,"Ġroughriders":12758,"Ġnationalcompetition":12759,"Ġtemora":12760,"Ġimmedi":12761,"Ġbelediyespor":12762,"ĠneuchÃ¢tel":12763,"Ġnebelhorn":12764,"Ġlafayette":12765,"Ġlauderdale":12766,"Ġnewcastle":12767,"abbrev":12768,"Ġbournemouth":12769,"Ġbobruisk":12770,"ĠbogotÃ¡":12771,"Ġmoizan":12772,"Ġmolecular":12773,"Ġcarriacou":12774,"Ġenforcement":12775,"Ġpolinski":12776,"ĠbrÃ¸ndby":12777,"Ġparramatta":12778,"Ġzandonadi":12779,"Ġformerchoreographer":12780,"Ġexactly":12781,"Ġafldraft":12782,"Ġbarrister":12783,"Ġguadalajara":12784,"Ġmediterranean":12785,"Ġmidsummer":12786,"byluiginovi":12787,"Ġamherst":12788,"Ġyoutube":12789,"Ġdisbanded":12790,"Ġdismissed":12791,"Ġvicenza":12792,"Ġolympiakos":12793,"Ã¼seyin":12794,"Ġnorthamptonshire":12795,"Ġnorthfleet":12796,"Ġzephyrs":12797,"Ġtribeca":12798,"Ġxamax":12799,"Ġxylokastro":12800,"Ġinterceptions":12801,"ĠÃļjpest":12802,"Ġesteghlal":12803,"Ġavtozapchast":12804,"Ġarchduke":12805,"Ġarchduchess":12806,"Ġnovgorod":12807,"Ġkaroliina":12808,"Ġsurrealism":12809,"Ġemphysema":12810,"Ġrelativity":12811,"Ġbalasubrahmanyam":12812,"Ġmerengue":12813,"armstadt":12814,"Ġvojvodina":12815,"Ġivideliza":12816,"Ġmacmillan":12817,"Ġtranscendence":12818,"doublesranking":12819,"Ġsaskatoon":12820,"Ġpotchefstroom":12821,"Ġpodokesaurus":12822,"ĠgÃ¶ttingen":12823,"Ġkamehameha":12824,"ĠbesanÃ§on":12825,"ĠÃĸztÃ¼rk":12826,"Ġunsuspecting":12827,"Ġzarghami":12828,"Ġsynthesizers":12829,"Ġkaiserslautern":12830,"Ġpneumococcal":12831,"Ġmouillierat":12832,"/]":12833,"/~":12834,"013":12835,"220":12836,"267":12837,"289":12838,"286":12839,"34":12840,"36":12841,"376":12842,"400":12843,"433":12844,"440":12845,"57":12846,"535":12847,"61":12848,"62":12849,"887":12850,"91":12851,"99":12852,"aon":12853,"aus":12854,"aire":12855,"aism":12856,"atics":12857,"aurs":12858,"axel":12859,"aÐ½":12860,"aÃ±a":12861,"bi":12862,"bol":12863,"big":12864,"bad":12865,"bear":12866,"bap":12867,"bage":12868,"bry":12869,"bins":12870,"baz":12871,"bling":12872,"bula":12873,"bakh":12874,"bune":12875,"bovich":12876,"bhivamsa":12877,"cin":12878,"cot":12879,"cut":12880,"cly":12881,"cie":12882,"cip":12883,"cong":12884,"core":12885,"cstart":12886,"cents":12887,"cador":12888,"camer":12889,"crow":12890,"cott":12891,"caine":12892,"clay":12893,"cesto":12894,"dh":12895,"dn":12896,"dq":12897,"das":12898,"dad":12899,"dou":12900,"dest":12901,"dif":12902,"deb":12903,"dress":12904,"dance":12905,"dna":12906,"dhouse":12907,"dien":12908,"doria":12909,"dingen":12910,"dvoÅĻÃ¡k":12911,"darmstadt":12912,"eu":12913,"ez":12914,"eon":12915,"eti":12916,"ele":12917,"ech":12918,"ege":12919,"eers":12920,"equ":12921,"eira":12922,"eastern":12923,"epernick":12924,"elect":12925,"eÑĤ":12926,"eedd":12927,"fg":12928,"fi":12929,"fur":12930,"fac":12931,"fri":12932,"fly":12933,"fey":12934,"fell":12935,"fok":12936,"fast":12937,"fron":12938,"fuk":12939,"fare":12940,"feld":12941,"funded":12942,"fisher":12943,"gp":12944,"gir":12945,"game":12946,"gom":12947,"gard":12948,"gency":12949,"gli":12950,"gdr":12951,"gordon":12952,"gressive":12953,"gnon":12954,"gillian":12955,"garde":12956,"hor":12957,"hal":12958,"hed":12959,"hus":12960,"hil":12961,"had":12962,"hut":12963,"hard":12964,"hra":12965,"hart":12966,"hang":12967,"hai":12968,"hans":12969,"hari":12970,"henz":12971,"hof":12972,"hima":12973,"hovo":12974,"hroom":12975,"halse":12976,"hampton":12977,"having":12978,"hreek":12979,"higgins":12980,"iard":12981,"iers":12982,"ivers":12983,"ihl":12984,"iÃ³":12985,"iova":12986,"ihar":12987,"iÃ£o":12988,"iott":12989,"jj":12990,"jn":12991,"jon":12992,"jus":12993,"jom":12994,"juc":12995,"josi":12996,"jaw":12997,"jones":12998,"jno":12999,"jits":13000,"jazz":13001,"jasper":13002,"jevac":13003,"kg":13004,"km":13005,"kate":13006,"kent":13007,"kap":13008,"kia":13009,"kut":13010,"kers":13011,"keb":13012,"kok":13013,"kies":13014,"kara":13015,"kota":13016,"klaus":13017,"kopp":13018,"konstantin":13019,"killers":13020,"lf":13021,"lm":13022,"lr":13023,"lla":13024,"lut":13025,"list":13026,"log":13027,"lief":13028,"lisa":13029,"ludw":13030,"lenny":13031,"lcb":13032,"lassic":13033,"mi":13034,"mis":13035,"mol":13036,"mil":13037,"mand":13038,"mick":13039,"mik":13040,"mio":13041,"mory":13042,"mina":13043,"mys":13044,"mons":13045,"mese":13046,"mike":13047,"mony":13048,"msk":13049,"macy":13050,"mumon":13051,"making":13052,"mills":13053,"nt":13054,"near":13055,"nord":13056,"nov":13057,"nÃ©":13058,"nÃ¡":13059,"native":13060,"nica":13061,"nelle":13062,"nolan":13063,"nadeem":13064,"nielsen":13065,"oz":13066,"oan":13067,"oen":13068,"och":13069,"oire":13070,"oqu":13071,"oons":13072,"oque":13073,"otee":13074,"otis":13075,"ourne":13076,"oise":13077,"oja":13078,"ozen":13079,"oeste":13080,"oaks":13081,"pm":13082,"pes":13083,"pad":13084,"pul":13085,"pers":13086,"pain":13087,"pav":13088,"pod":13089,"pts":13090,"prac":13091,"pyle":13092,"pakist":13093,"pret":13094,"pworth":13095,"pseud":13096,"pdf":13097,"pathi":13098,"penter":13099,"qbloom":13100,"rar":13101,"run":13102,"rand":13103,"rong":13104,"rina":13105,"rors":13106,"rint":13107,"randy":13108,"rimin":13109,"sl":13110,"sil":13111,"sur":13112,"sity":13113,"sup":13114,"sud":13115,"sec":13116,"sung":13117,"sley":13118,"sington":13119,"slav":13120,"sworth":13121,"swick":13122,"sardar":13123,"selling":13124,"svetlana":13125,"smyth":13126,"tun":13127,"tat":13128,"tag":13129,"tot":13130,"tou":13131,"tland":13132,"trick":13133,"tuddenham":13134,"ule":13135,"urb":13136,"utle":13137,"uous":13138,"uell":13139,"utist":13140,"uque":13141,"uÄĩ":13142,"uila":13143,"uji":13144,"ujan":13145,"uwal":13146,"uaries":13147,"vc":13148,"vl":13149,"vol":13150,"via":13151,"voc":13152,"viz":13153,"vina":13154,"vide":13155,"vira":13156,"view":13157,"vii":13158,"wp":13159,"wen":13160,"wis":13161,"whe":13162,"winger":13163,"wolf":13164,"wata":13165,"xy":13166,"xic":13167,"xim":13168,"xington":13169,"xual":13170,"yed":13171,"yus":13172,"yag":13173,"ysi":13174,"yev":13175,"yca":13176,"yards":13177,"yrd":13178,"yassin":13179,"yÄ±ldÄ±ray":13180,"zam":13181,"zed":13182,"zia":13183,"zers":13184,"zran":13185,"zell":13186,"zze":13187,"zani":13188,"zhu":13189,"zni":13190,"ziana":13191,"zanne":13192,"zanotti":13193,"zuy":13194,"zuh":13195,"zwol":13196,"¢å¿Ĺ":13197,"£ķ":13198,"¤ì":13199,"¥Õ":13200,"¦Ļ":13201,"§¿":13202,"§Ħ":13203,"°¢å¿Ĺ":13204,"±ç":13205,"²ł":13206,"¸ã":13207,"»ĥ":13208,"½el":13209,"Ã¬":13210,"Ãī":13211,"Åı":13212,"Åĵ":13213,"Åł":13214,"Èĺ":13215,"ÈĽ":13216,"ÉĻ":13217,"Êĥ":13218,"ÊĴ":13219,"ËĲ":13220,"Î¿":13221,"Ïĥ":13222,"ÑĨ":13223,"Õ«":13224,"Õ¥Õ":13225,"ÖĢ":13226,"×ĳ":13227,"Ø¯":13228,"Ùģ":13229,"ÙĪ":13230,"å°":13231,"åŁ":13232,"æ¸":13233,"æĽ":13234,"æľ":13235,"ìĹ":13236,"ì²ł":13237,"Ġ>":13238,"ĠÕ":13239,"Ġä":13240,"Ġê":13241,"Ġik":13242,"Ġign":13243,"Ġà¸":13244,"Ġà´":13245,"Ġà®":13246,"ĠÙħ":13247,"ĠÈĺ":13248,"Ģ¸ã":13249,"Ĥ¨ì":13250,"ĥİ":13251,"ħsa":13252,"Ĩlf":13253,"İle":13254,"ı¯":13255,"Ĳè":13256,"ķà®":13257,"ĺà¸":13258,"ĺ¤ì":13259,"ĺì²ł":13260,"Ļà¸":13261,"ļÏ":13262,"Ŀ´":13263,"ĿĴ":13264,"Ŀĺì²ł":13265,"ŃØ³":13266,"Ġaj":13267,"Ġau":13268,"Ġay":13269,"Ġati":13270,"Ġarb":13271,"Ġaid":13272,"Ġahn":13273,"Ġamp":13274,"Ġaqu":13275,"Ġavis":13276,"Ġaene":13277,"Ġaired":13278,"Ġauf":13279,"Ġahead":13280,"Ġazer":13281,"Ġaias":13282,"Ġayr":13283,"Ġalain":13284,"erl":13285,"eror":13286,"eric":13287,"erra":13288,"erich":13289,"erous":13290,"erik":13291,"erne":13292,"erved":13293,"ertis":13294,"ercolor":13295,"thor":13296,"that":13297,"thri":13298,"thong":13299,"thames":13300,"thuen":13301,"inv":13302,"inas":13303,"inate":13304,"inos":13305,"inthe":13306,"inics":13307,"initi":13308,"intin":13309,"inkov":13310,"inxs":13311,"onj":13312,"oning":13313,"once":13314,"onel":13315,"only":13316,"onÃ©":13317,"onna":13318,"onado":13319,"oncesto":13320,"anch":13321,"aney":13322,"anov":13323,"anzam":13324,"Ġsti":13325,"Ġstic":13326,"Ġsue":13327,"Ġscc":13328,"Ġsich":13329,"Ġsort":13330,"Ġsass":13331,"Ġsull":13332,"Ġsah":13333,"Ġstern":13334,"Ġslab":13335,"Ġsile":13336,"Ġsno":13337,"Ġsween":13338,"Ġsize":13339,"Ġsearch":13340,"Ġsvin":13341,"ĠsÅĵ":13342,"orer":13343,"oris":13344,"ored":13345,"orow":13346,"orial":13347,"orative":13348,"orrow":13349,"orlar":13350,"orovna":13351,"orlÃ©":13352,"Ġbk":13353,"Ġbear":13354,"Ġbath":13355,"Ġbust":13356,"Ġbrom":13357,"Ġbif":13358,"Ġbop":13359,"Ġbod":13360,"Ġbere":13361,"Ġbild":13362,"ĠbÃ¼":13363,"Ġbene":13364,"Ġbij":13365,"Ġbott":13366,"Ġbacon":13367,"Ġbible":13368,"Ġbaman":13369,"Ġboca":13370,"Ġbundes":13371,"Ġbfg":13372,"tile":13373,"tise":13374,"tified":13375,"tibha":13376,"aro":13377,"ares":13378,"arit":13379,"arol":13380,"ario":13381,"arph":13382,"arical":13383,"arning":13384,"areg":13385,"arafat":13386,"artie":13387,"arthy":13388,"around":13389,"Ġcac":13390,"Ġcum":13391,"Ġcres":13392,"Ġcry":13393,"Ġcash":13394,"Ġcory":13395,"ĠcÃ¡":13396,"Ġcind":13397,"Ġcurt":13398,"Ġciting":13399,"Ġcpac":13400,"Ġcumberland":13401,"Ġcurses":13402,"enr":13403,"ention":13404,"enary":13405,"enie":13406,"enens":13407,"enough":13408,"enuri":13409,"enasa":13410,"enadi":13411,"enthood":13412,"enkap":13413,"Ġthom":13414,"Ġthorn":13415,"Ġthames":13416,"Ġfis":13417,"Ġfears":13418,"Ġfres":13419,"Ġfine":13420,"Ġfah":13421,"Ġfann":13422,"Ġfaw":13423,"Ġfans":13424,"Ġfinger":13425,"Ġfior":13426,"Ġfuel":13427,"Ġfsa":13428,"Ġflav":13429,"Ġfidel":13430,"Ġfuen":13431,"Ġfencer":13432,"Ġfavour":13433,"alan":13434,"alla":13435,"alup":13436,"alers":13437,"algo":13438,"alford":13439,"alwins":13440,"alencar":13441,"Ġpb":13442,"Ġpor":13443,"Ġpsi":13444,"Ġpul":13445,"Ġpub":13446,"Ġply":13447,"Ġpill":13448,"Ġpry":13449,"Ġposi":13450,"Ġpah":13451,"Ġpto":13452,"Ġpier":13453,"Ġpaz":13454,"Ġpanc":13455,"Ġpba":13456,"Ġpemb":13457,"Ġpais":13458,"Ġpays":13459,"Ġpowell":13460,"Ġpurce":13461,"Ġpapp":13462,"Ġpiece":13463,"Ġportion":13464,"Ġpupp":13465,"Ġppd":13466,"Ġpvc":13467,"leum":13468,"leased":13469,"leberg":13470,"leweb":13471,"Ġmf":13472,"Ġmx":13473,"Ġmes":13474,"Ġmight":13475,"Ġmiz":13476,"Ġmaz":13477,"Ġmaf":13478,"Ġmile":13479,"Ġmace":13480,"Ġmoss":13481,"Ġmba":13482,"Ġmude":13483,"Ġmondo":13484,"Ġmiche":13485,"Ġmaternal":13486,"Ġwed":13487,"Ġwig":13488,"Ġwear":13489,"Ġwick":13490,"Ġwend":13491,"Ġwine":13492,"Ġwant":13493,"Ġwcl":13494,"Ġwah":13495,"Ġwade":13496,"Ġwaj":13497,"Ġwoll":13498,"Ġwrist":13499,"Ġwahl":13500,"Ġwives":13501,"ĠwÅĤ":13502,"Ġwacker":13503,"Ġwupper":13504,"Ġwants":13505,"Ġwrong":13506,"tet":13507,"tev":13508,"tex":13509,"tese":13510,"temin":13511,"telsb":13512,"Ġthems":13513,"Ġtheories":13514,"Ġtheological":13515,"isch":13516,"iska":13517,"israel":13518,"ispo":13519,"ismatic":13520,"Ġoc":13521,"Ġot":13522,"Ġober":13523,"Ġoum":13524,"Ġoud":13525,"Ġoire":13526,"Ġoss":13527,"Ġoll":13528,"Ġouz":13529,"Ġomb":13530,"Ġoeste":13531,"Ġoonj":13532,"Ġhm":13533,"Ġhath":13534,"Ġhain":13535,"Ġhach":13536,"Ġhai":13537,"Ġhaf":13538,"Ġhair":13539,"Ġhood":13540,"Ġhomp":13541,"Ġhailed":13542,"Ġhapp":13543,"Ġhuge":13544,"Ġhnk":13545,"Ġhrh":13546,"ĠhÃ¼seyin":13547,"rea":13548,"rem":13549,"reve":13550,"reach":13551,"reuth":13552,"realist":13553,"reiche":13554,"Ġdv":13555,"Ġdy":13556,"Ġdal":13557,"Ġdas":13558,"Ġdot":13559,"Ġdup":13560,"Ġdts":13561,"Ġdik":13562,"ĠdÃ©":13563,"Ġdang":13564,"Ġdated":13565,"Ġdenn":13566,"Ġdiam":13567,"Ġdaf":13568,"Ġdons":13569,"Ġdale":13570,"Ġdrew":13571,"Ġdrey":13572,"Ġdush":13573,"Ġdusty":13574,"Ġdileo":13575,"Ġnk":13576,"Ġnr":13577,"Ġner":13578,"Ġnan":13579,"Ġness":13580,"Ġnak":13581,"Ġnach":13582,"Ġnah":13583,"Ġnaw":13584,"Ġnite":13585,"Ġnij":13586,"Ġnwide":13587,"Ġninth":13588,"Ġnasser":13589,"Ġnero":13590,"Ġniece":13591,"Ġnursing":13592,"Ġnwp":13593,"Ġnenadi":13594,"asin":13595,"asar":13596,"assi":13597,"aspx":13598,"asota":13599,"astical":13600,"asavy":13601,"asaki":13602,"Ġinou":13603,"Ġints":13604,"Ġinsti":13605,"Ġinval":13606,"Ġinfielder":13607,"Ġinning":13608,"Ġinste":13609,"Ġinfan":13610,"Ġinfr":13611,"Ġinline":13612,"Ġinches":13613,"Ġincheon":13614,"amy":13615,"aming":13616,"amie":13617,"amateur":13618,"Ġanat":13619,"Ġanger":13620,"Ġanya":13621,"Ġanwar":13622,"Ġanja":13623,"Ġantan":13624,"Ġankar":13625,"esi":13626,"esis":13627,"estion":13628,"esian":13629,"eski":13630,"eschi":13631,"esheim":13632,"lace":13633,"laiv":13634,"lava":13635,"laura":13636,"lakov":13637,"laoise":13638,"ici":13639,"icu":13640,"iced":13641,"ication":13642,"icist":13643,"icles":13644,"icies":13645,"icting":13646,"eders":13647,"educ":13648,"roa":13649,"rosi":13650,"rook":13651,"roger":13652,"rows":13653,"rokes":13654,"roÃŁ":13655,"iry":13656,"irÅį":13657,"irense":13658,"Ġtc":13659,"Ġtp":13660,"Ġtx":13661,"Ġtun":13662,"Ġtag":13663,"Ġtver":13664,"Ġtut":13665,"Ġtain":13666,"Ġtrom":13667,"Ġtab":13668,"Ġtys":13669,"Ġtaw":13670,"Ġtuf":13671,"ĠtÃ¼r":13672,"Ġtutor":13673,"ĠtÃ¶l":13674,"Ġ204":13675,"Ġ207":13676,"ingue":13677,"ingham":13678,"ingakash":13679,"Ġandree":13680,"Ġjc":13681,"Ġjs":13682,"Ġjas":13683,"Ġjol":13684,"Ġjub":13685,"Ġjong":13686,"Ġjina":13687,"Ġjive":13688,"ĠjÃ³":13689,"Ġjays":13690,"Ġjesse":13691,"ĠjÃº":13692,"Ġjmg":13693,"ĠjÅ«":13694,"Ġjalis":13695,"Ġjinah":13696,"Ġjalom":13697,"Ġjicks":13698,"uni":13699,"unting":13700,"united":13701,"unya":13702,"unesse":13703,"unthor":13704,"Ġgorn":13705,"Ġgap":13706,"Ġgly":13707,"Ġgers":13708,"Ġgain":13709,"Ġgich":13710,"Ġgov":13711,"Ġgma":13712,"Ġgaz":13713,"Ġgone":13714,"Ġgau":13715,"Ġglyn":13716,"Ġglee":13717,"Ġgwang":13718,"Ġguggen":13719,"Ġgoua":13720,"ceased":13721,"cept":13722,"celeste":13723,"elo":13724,"elic":13725,"elig":13726,"elton":13727,"elong":13728,"elles":13729,"elves":13730,"elodi":13731,"elblue":13732,"uson":13733,"usar":13734,"usual":13735,"ushan":13736,"usli":13737,"itas":13738,"itter":13739,"itted":13740,"itational":13741,"itated":13742,"itania":13743,"itrea":13744,"ched":13745,"chos":13746,"chuk":13747,"cheng":13748,"chestnut":13749,"chika":13750,"choeller":13751,"chÃ©ri":13752,"chuzh":13753,"ols":13754,"olent":13755,"olod":13756,"ollo":13757,"oltz":13758,"olyevich":13759,"ille":13760,"ilis":13761,"ilong":13762,"ilyn":13763,"url":13764,"uration":13765,"urra":13766,"urire":13767,"urred":13768,"urance":13769,"urini":13770,"enton":13771,"entan":13772,"atl":13773,"atlan":13774,"Ġlk":13775,"Ġlt":13776,"Ġlis":13777,"Ġlic":13778,"Ġlow":13779,"Ġlif":13780,"ĠlÃ©":13781,"Ġlies":13782,"Ġlied":13783,"Ġlans":13784,"Ġlinger":13785,"ĠlÃ¼":13786,"Ġlsu":13787,"Ġlanding":13788,"Ġluna":13789,"Ġlenin":13790,"Ġlingu":13791,"ĠlÃ©r":13792,"berra":13793,"berok":13794,"berfl":13795,"berwell":13796,"ige":13797,"igs":13798,"igore":13799,"igrap":13800,"iggered":13801,"Ġdeed":13802,"Ġdeem":13803,"Ġdemp":13804,"Ġdeleg":13805,"Ġdeacon":13806,"Ġdecision":13807,"Ġdeceased":13808,"Ġkc":13809,"Ġkil":13810,"Ġkub":13811,"Ġkly":13812,"Ġkak":13813,"Ġkav":13814,"Ġkry":13815,"Ġkell":13816,"Ġkael":13817,"Ġkix":13818,"Ġkhl":13819,"Ġkind":13820,"Ġkep":13821,"Ġkyn":13822,"Ġkari":13823,"Ġkrist":13824,"Ġkids":13825,"Ġkapp":13826,"Ġkorne":13827,"Ġkurd":13828,"ĠkÄ«":13829,"Ġkrav":13830,"Ġkassel":13831,"Ġkcmg":13832,"Ġreper":13833,"Ġrequ":13834,"Ġreason":13835,"Ġrevis":13836,"Ġregan":13837,"Ġreev":13838,"Ġrebe":13839,"Ġrelie":13840,"Ġreform":13841,"Ġretained":13842,"Ġreelected":13843,"Ġreilly":13844,"Ġrelief":13845,"Ġreasin":13846,"amey":13847,"ameless":13848,"Ġarc":13849,"Ġaria":13850,"Ġarra":13851,"Ġarray":13852,"Ġarkh":13853,"Ġartill":13854,"Ġaranzam":13855,"hee":13856,"heinz":13857,"hejiang":13858,"stand":13859,"stock":13860,"stuart":13861,"Ġrc":13862,"Ġrg":13863,"Ġrat":13864,"Ġrall":13865,"Ġrab":13866,"Ġrip":13867,"Ġrong":13868,"ĠrÃ©":13869,"Ġrated":13870,"Ġraz":13871,"Ġrating":13872,"Ġrani":13873,"Ġrays":13874,"Ġruck":13875,"Ġrza":13876,"Ġrural":13877,"Ġrise":13878,"Ġrpa":13879,"Ġrigor":13880,"Ġrhead":13881,"Ġrare":13882,"Ġrii":13883,"Ġrkv":13884,"Ġramey":13885,"Ġwasser":13886,"Ġfora":13887,"Ġfork":13888,"Ġforder":13889,"Ġforrest":13890,"adir":13891,"adim":13892,"adman":13893,"adys":13894,"adult":13895,"adÃ³":13896,"adlin":13897,"adhy":13898,"adho":13899,"adise":13900,"agena":13901,"Ġtopped":13902,"Ġtobak":13903,"Ġtogli":13904,"Ġtoxic":13905,"sik":13906,"six":13907,"siph":13908,"omon":13909,"omar":13910,"omba":13911,"omberok":13912,"imran":13913,"imens":13914,"Ġisis":13915,"Ġisles":13916,"Ġisma":13917,"Ġisbn":13918,"earcher":13919,"earhead":13920,"term":13921,"tery":13922,"terey":13923,"terson":13924,"teroff":13925,"andh":13926,"andus":13927,"anders":13928,"andona":13929,"tles":13930,"Ġstal":13931,"Ġstork":13932,"Ġstab":13933,"Ġstok":13934,"Ġstamp":13935,"Ġstade":13936,"Ġstood":13937,"Ġstable":13938,"Ġstint":13939,"Ġstints":13940,"Ġstrat":13941,"Ġstour":13942,"ĠstÄĻ":13943,"Ġstroke":13944,"Ġstunned":13945,"Ġstrokes":13946,"Ġyard":13947,"Ġyue":13948,"Ġyang":13949,"Ġyael":13950,"Ġyasu":13951,"Ġyassin":13952,"Ġyeast":13953,"Ġyvon":13954,"Ġyadav":13955,"ĠyÄ±ldÄ±ray":13956,"Ġyoko":13957,"Ġyuzon":13958,"Ġyertis":13959,"ulo":13960,"uler":13961,"ulin":13962,"ulted":13963,"ulary":13964,"Ġalm":13965,"Ġally":13966,"Ġalto":13967,"Ġalone":13968,"Ġalamed":13969,"Ġaldon":13970,"Ġaligned":13971,"Ġalgi":13972,"Ġalois":13973,"Ġalready":13974,"plaza":13975,"playing":13976,"platens":13977,"Ġeu":13978,"Ġecc":13979,"Ġeif":13980,"Ġeile":13981,"Ġeury":13982,"Ġeworth":13983,"Ġeuf":13984,"Ġewart":13985,"Ġeinstein":13986,"Ġebel":13987,"Ġeihl":13988,"Ġchr":13989,"Ġchoc":13990,"Ġchrom":13991,"Ġchore":13992,"Ġchant":13993,"Ġchuck":13994,"Ġcheng":13995,"ĠchÃ¢":13996,"Ġchronic":13997,"Ġchalwins":13998,"veu":13999,"veer":14000,"vember":14001,"vett":14002,"Ġhem":14003,"Ġheav":14004,"Ġhealy":14005,"Ġhegel":14006,"Ġheilong":14007,"acal":14008,"acle":14009,"acity":14010,"acio":14011,"acesh":14012,"Ġasc":14013,"Ġasch":14014,"Ġasador":14015,"Ġascen":14016,"verly":14017,"vertis":14018,"verhampton":14019,"otar":14020,"ottil":14021,"Ġunb":14022,"Ġund":14023,"Ġuncon":14024,"Ġunrest":14025,"Ġunopp":14026,"Ġunusual":14027,"Ġunteroff":14028,"orno":14029,"allstar":14030,"idar":14031,"iday":14032,"idjan":14033,"idental":14034,"apo":14035,"apas":14036,"apat":14037,"appen":14038,"apeta":14039,"apartheid":14040,"Ġonwards":14041,"ighted":14042,"ighbors":14043,"iao":14044,"iaer":14045,"iabÃ¡":14046,"Ġvc":14047,"Ġvag":14048,"Ġviz":14049,"Ġvamp":14050,"Ġvaul":14051,"Ġvander":14052,"ĠvÃŃ":14053,"Ġvij":14054,"Ġvrat":14055,"ĠvÃ¤":14056,"Ġvidu":14057,"Ġvault":14058,"Ġventures":14059,"Ġvinkov":14060,"Ġvadim":14061,"ayan":14062,"etalli":14063,"uto":14064,"utter":14065,"utros":14066,"utality":14067,"ubi":14068,"ubine":14069,"ubio":14070,"owo":14071,"owes":14072,"owed":14073,"owers":14074,"Ġplate":14075,"Ġplager":14076,"Ġplatin":14077,"Ġatkv":14078,"Ġatmos":14079,"Ġsemar":14080,"Ġseaf":14081,"Ġseki":14082,"Ġseance":14083,"Ġsevo":14084,"Ġsebas":14085,"Ġsebovich":14086,"Ġleth":14087,"Ġleigh":14088,"Ġless":14089,"Ġlesk":14090,"Ġlecture":14091,"Ġlexington":14092,"Ġleotar":14093,"athe":14094,"athcly":14095,"merli":14096,"Ġwhig":14097,"Ġwhalers":14098,"upon":14099,"uport":14100,"uppen":14101,"upret":14102,"ribe":14103,"rienne":14104,"ardari":14105,"uga":14106,"rach":14107,"rahi":14108,"Ġplayback":14109,"Ġplayboys":14110,"Ġ182":14111,"Ġ1800":14112,"Ġ1824":14113,"umo":14114,"umal":14115,"umously":14116,"Ġroma":14117,"Ġrosk":14118,"Ġrods":14119,"Ġroshi":14120,"Ġrouge":14121,"Ġrotter":14122,"Ġroelcke":14123,"osomes":14124,"osvÃ¡":14125,"oscope":14126,"arta":14127,"Ġnationalism":14128,"ithness":14129,"Ġfoul":14130,"Ġfoley":14131,"Ġfoyle":14132,"Ġfountain":14133,"Ġ321":14134,"Ġcob":14135,"Ġcox":14136,"Ġcoup":14137,"Ġcovers":14138,"Ġcoff":14139,"Ġcock":14140,"Ġcoinc":14141,"Ġcode":14142,"Ġcoordin":14143,"Ġcotia":14144,"Ġcocaine":14145,"Ġcotemin":14146,"Ġproton":14147,"Ġpromp":14148,"Ġprotest":14149,"Ġproble":14150,"reso":14151,"resÃ¶":14152,"gee":14153,"gei":14154,"geoff":14155,"Ġteys":14156,"Ġteix":14157,"Ġtehreek":14158,"Ġimit":14159,"Ġimple":14160,"Ġimitation":14161,"ustend":14162,"ocation":14163,"ocrin":14164,"oclassic":14165,"Ġbeth":14166,"Ġbeall":14167,"Ġbeira":14168,"Ġbeek":14169,"Ġbegin":14170,"Ġbeats":14171,"Ġbeef":14172,"Ġbejuc":14173,"Ġbezuh":14174,"Ġbeverly":14175,"Ġnei":14176,"Ġneal":14177,"Ġneat":14178,"Ġneath":14179,"Ġneuro":14180,"Ġneeds":14181,"Ġnebula":14182,"Ġneoclassic":14183,"ueva":14184,"ueÃ±":14185,"ders":14186,"derek":14187,"derminster":14188,"derkerk":14189,"Ġmarl":14190,"Ġmarsh":14191,"Ġmarina":14192,"Ġmarek":14193,"Ġmargin":14194,"Ġmarvell":14195,"Ġmarinko":14196,"Ġmartha":14197,"Ġmarharajah":14198,"Ġmarilyn":14199,"ieu":14200,"sho":14201,"shin":14202,"shon":14203,"shar":14204,"shman":14205,"shore":14206,"shao":14207,"shanes":14208,"udas":14209,"udad":14210,"udok":14211,"udio":14212,"baller":14213,"esso":14214,"esses":14215,"essed":14216,"Ġspy":14217,"Ġspit":14218,"Ġspot":14219,"Ġspell":14220,"Ġspons":14221,"Ġspino":14222,"Ġspare":14223,"Ġspatter":14224,"Ġspirelja":14225,"Ġsphas":14226,"Ġspearhead":14227,"Ġspacesh":14228,"Ġlag":14229,"Ġlay":14230,"Ġlaur":14231,"Ġlage":14232,"Ġlack":14233,"Ġlatest":14234,"Ġlada":14235,"Ġlaude":14236,"Ġlacro":14237,"Ġlapworth":14238,"ordrecht":14239,"ione":14240,"romeo":14241,"Ġcomedic":14242,"Ġconfl":14243,"Ġconvention":14244,"ests":14245,"estown":14246,"estone":14247,"ichi":14248,"ichy":14249,"illon":14250,"illor":14251,"illiard":14252,"ishin":14253,"ifer":14254,"ifts":14255,"ifeng":14256,"Ġnewest":14257,"Ġnewry":14258,"Ġnewbury":14259,"Ġjoel":14260,"Ġjoond":14261,"Ġjoanne":14262,"Ġsham":14263,"Ġshel":14264,"Ġshur":14265,"Ġshia":14266,"Ġship":14267,"Ġshantz":14268,"Ġships":14269,"Ġshonan":14270,"Ġshreve":14271,"Ġshudok":14272,"icky":14273,"ickle":14274,"endi":14275,"endan":14276,"endar":14277,"endit":14278,"endum":14279,"opop":14280,"opark":14281,"ranton":14282,"Ġcold":14283,"Ġcolchester":14284,"Ġapartheid":14285,"Ġapache":14286,"Ġcapp":14287,"Ġcapt":14288,"Ġcapelle":14289,"Ġcaptured":14290,"Ġcapacity":14291,"odica":14292,"odorovna":14293,"also":14294,"ebel":14295,"ebuy":14296,"ebourne":14297,"ebrook":14298,"Ġmecom":14299,"Ġmeans":14300,"Ġmeitan":14301,"Ġmezzo":14302,"Ġmemory":14303,"Ġmethuen":14304,"Ġbyung":14305,"ryÅį":14306,"abled":14307,"abakh":14308,"abouts":14309,"ability":14310,"abulary":14311,"versity":14312,"tsville":14313,"ipa":14314,"ipe":14315,"ipas":14316,"ipur":14317,"ippe":14318,"ached":14319,"achita":14320,"Ġ630":14321,"Ġsere":14322,"ĠserÃ©":14323,"Ġserial":14324,
[...]
